{
  "0": "\u0000",
  "1": "\u0001",
  "2": "\u0002",
  "3": "\u0003",
  "4": "\u0004",
  "5": "\u0005",
  "6": "\u0006",
  "7": "\u0007",
  "8": "\b",
  "9": "\t",
  "10": "\n",
  "11": "\u000b",
  "12": "\f",
  "13": "\r",
  "14": "\u000e",
  "15": "\u000f",
  "16": "\u0010",
  "17": "\u0011",
  "18": "\u0012",
  "19": "\u0013",
  "20": "\u0014",
  "21": "\u0015",
  "22": "\u0016",
  "23": "\u0017",
  "24": "\u0018",
  "25": "\u0019",
  "26": "\u001a",
  "27": "\u001b",
  "28": "\u001c",
  "29": "\u001d",
  "30": "\u001e",
  "31": "\u001f",
  "32": " ",
  "33": "!",
  "34": "\"",
  "35": "#",
  "36": "$",
  "37": "%",
  "38": "&",
  "39": "'",
  "40": "(",
  "41": ")",
  "42": "*",
  "43": "+",
  "44": ",",
  "45": "-",
  "46": ".",
  "47": "/",
  "48": "0",
  "49": "1",
  "50": "2",
  "51": "3",
  "52": "4",
  "53": "5",
  "54": "6",
  "55": "7",
  "56": "8",
  "57": "9",
  "58": ":",
  "59": ";",
  "60": "<",
  "61": "=",
  "62": ">",
  "63": "?",
  "64": "@",
  "65": "A",
  "66": "B",
  "67": "C",
  "68": "D",
  "69": "E",
  "70": "F",
  "71": "G",
  "72": "H",
  "73": "I",
  "74": "J",
  "75": "K",
  "76": "L",
  "77": "M",
  "78": "N",
  "79": "O",
  "80": "P",
  "81": "Q",
  "82": "R",
  "83": "S",
  "84": "T",
  "85": "U",
  "86": "V",
  "87": "W",
  "88": "X",
  "89": "Y",
  "90": "Z",
  "91": "[",
  "92": "\\",
  "93": "]",
  "94": "^",
  "95": "_",
  "96": "`",
  "97": "a",
  "98": "b",
  "99": "c",
  "100": "d",
  "101": "e",
  "102": "f",
  "103": "g",
  "104": "h",
  "105": "i",
  "106": "j",
  "107": "k",
  "108": "l",
  "109": "m",
  "110": "n",
  "111": "o",
  "112": "p",
  "113": "q",
  "114": "r",
  "115": "s",
  "116": "t",
  "117": "u",
  "118": "v",
  "119": "w",
  "120": "x",
  "121": "y",
  "122": "z",
  "123": "{",
  "124": "|",
  "125": "}",
  "126": "~",
  "127": "",
  "128": "",
  "129": "",
  "130": "",
  "131": "",
  "132": "",
  "133": "",
  "134": "",
  "135": "",
  "136": "",
  "137": "",
  "138": "",
  "139": "",
  "140": "",
  "141": "",
  "142": "",
  "143": "",
  "144": "",
  "145": "",
  "146": "",
  "147": "",
  "148": "",
  "149": "",
  "150": "",
  "151": "",
  "152": "",
  "153": "",
  "154": "",
  "155": "",
  "156": "",
  "157": "",
  "158": "",
  "159": "",
  "160": " ",
  "161": "¡",
  "162": "¢",
  "163": "£",
  "164": "¤",
  "165": "¥",
  "166": "¦",
  "167": "§",
  "168": "¨",
  "169": "©",
  "170": "ª",
  "171": "«",
  "172": "¬",
  "173": "­",
  "174": "®",
  "175": "¯",
  "176": "°",
  "177": "±",
  "178": "²",
  "179": "³",
  "180": "´",
  "181": "µ",
  "182": "¶",
  "183": "·",
  "184": "¸",
  "185": "¹",
  "186": "º",
  "187": "»",
  "188": "¼",
  "189": "½",
  "190": "¾",
  "191": "¿",
  "192": "À",
  "193": "Á",
  "194": "Â",
  "195": "Ã",
  "196": "Ä",
  "197": "Å",
  "198": "Æ",
  "199": "Ç",
  "200": "È",
  "201": "É",
  "202": "Ê",
  "203": "Ë",
  "204": "Ì",
  "205": "Í",
  "206": "Î",
  "207": "Ï",
  "208": "Ð",
  "209": "Ñ",
  "210": "Ò",
  "211": "Ó",
  "212": "Ô",
  "213": "Õ",
  "214": "Ö",
  "215": "×",
  "216": "Ø",
  "217": "Ù",
  "218": "Ú",
  "219": "Û",
  "220": "Ü",
  "221": "Ý",
  "222": "Þ",
  "223": "ß",
  "224": "à",
  "225": "á",
  "226": "â",
  "227": "ã",
  "228": "ä",
  "229": "å",
  "230": "æ",
  "231": "ç",
  "232": "è",
  "233": "é",
  "234": "ê",
  "235": "ë",
  "236": "ì",
  "237": "í",
  "238": "î",
  "239": "ï",
  "240": "ð",
  "241": "ñ",
  "242": "ò",
  "243": "ó",
  "244": "ô",
  "245": "õ",
  "246": "ö",
  "247": "÷",
  "248": "ø",
  "249": "ù",
  "250": "ú",
  "251": "û",
  "252": "ü",
  "253": "ý",
  "254": "þ",
  "255": "ÿ",
  "256": "à¦",
  "257": "à§",
  "258": " à¦",
  "259": "à¦¾",
  "260": "à¦°",
  "261": "à§",
  "262": "à§",
  "263": "à¦¾à¦",
  "264": "à§à¦",
  "265": "à¦¿",
  "266": "à¦¿à¦",
  "267": "à¦° à¦",
  "268": "¯à¦",
  "269": "à§à¦",
  "270": "à§ à¦",
  "271": "¯à¦¼",
  "272": "à¦¨",
  "273": "à§",
  "274": "à¦¤",
  "275": "à§à¦°",
  "276": "à¦²",
  "277": "à¦",
  "278": "à§",
  "279": "à¦¬",
  "280": "à¦¾ à¦",
  "281": "à§à¦° à¦",
  "282": "¤ à¦",
  "283": "à¦¯à¦¼",
  "284": "à¦®",
  "285": "à¥",
  "286": "à¦°à§à¦",
  "287": "à§",
  "288": "à¦¾à¦¨",
  "289": "à§à¦¯",
  "290": " à¦¸",
  "291": "à¦¸",
  "292": " à¦¬",
  "293": " à¦",
  "294": "à¦¾à¦°",
  "295": "à¦¿à¦",
  "296": "à¥¤ à¦",
  "297": " à¦ª",
  "298": "à¦ª",
  "299": "à§à¦¤",
  "300": "à¦",
  "301": "à¦¾à¦° à¦",
  "302": "à¦¦",
  "303": "à¦",
  "304": ", à¦",
  "305": "à¦¿ à¦",
  "306": "à¦¹",
  "307": "à¦",
  "308": " à§",
  "309": "  ",
  "310": "à¦¾à¦²",
  "311": "à§à¦¬",
  "312": "à¦¾à¦¯à¦¼",
  "313": "à§à¦",
  "314": "à¦¶",
  "315": "à§",
  "316": "à§",
  "317": " à¦®",
  "318": "à¦¿à¦¯à¦¼",
  "319": " à¦",
  "320": "à§à¦¶",
  "321": "à¦£",
  "322": "à¦¾à¦¬",
  "323": "à§¦",
  "324": "à¦¾à¦¸",
  "325": "à¦¾à¦",
  "326": "à¦¾à¦®",
  "327": "à¥¤",
  "328": "à¦§",
  "329": "à§à¦¨",
  "330": "à¦¿à¦¨",
  "331": "ªà§à¦°",
  "332": "¹à¦¯à¦¼",
  "333": " à¦à¦°",
  "334": "à¦",
  "335": "§à§",
  "336": " à¦",
  "337": "à¦­",
  "338": "à¦¾à¦¦",
  "339": " à¦¦",
  "340": "à¦¬à¦",
  "341": "à§à¦¦",
  "342": "à¦¿à¦¤",
  "343": "à¦¿à¦²",
  "344": "à§à¦·",
  "345": "à§à¦¯à¦",
  "346": " à¦ªà§à¦°",
  "347": " à¦¨",
  "348": "à¦¾à¦¤",
  "349": "à¦",
  "350": "à¦¿à¦¬",
  "351": "à§à¦",
  "352": "à¦¾à¦",
  "353": " à¦¶",
  "354": " à¦",
  "355": "à§ à¦¬",
  "356": "à¦¿à¦¸",
  "357": "à¦¿à¦¤ à¦",
  "358": "à§à¦¯à¦¼",
  "359": "à¦",
  "360": "à¥¤\n",
  "361": "à¦¼",
  "362": "¡à¦¼",
  "363": "à§à¦",
  "364": "    ",
  "365": "à¦¥",
  "366": "à§à¦²",
  "367": " à¦¹",
  "368": "à¦¾à¦",
  "369": "à¦·",
  "370": "à¦¾à¦",
  "371": "à¦¾à¦·",
  "372": "à§à¥¤ à¦",
  "373": " à¦",
  "374": " à¦°",
  "375": "à¦¿à¦¶",
  "376": " (",
  "377": "à§à¦²",
  "378": "à¦¾à¦°à§à¦",
  "379": "à§à¦¥",
  "380": "à¦¾à¦¹",
  "381": " à§§à§",
  "382": "à§à¦",
  "383": "à¦¾à¦à¦²",
  "384": "à§à¦°",
  "385": "à§ à¦ª",
  "386": " à¦",
  "387": "à§ à¦¸",
  "388": "à¦à§à¦·",
  "389": "à¦¿à¦·",
  "390": "¯à§",
  "391": " à¦­",
  "392": "à§à¦",
  "393": "à¦°à§à¦¬",
  "394": "à¦°",
  "395": "à¦à¦¿ à¦",
  "396": "à§ à¦",
  "397": "à§à¦° à¦¸",
  "398": "à¦¿à¦®",
  "399": " à¦¤",
  "400": "à¦¿à¦° à¦",
  "401": " à¦à¦¬à¦",
  "402": "à§à¦¤",
  "403": " à¦",
  "404": "à¦",
  "405": "â",
  "406": "à¦¾à¦ª",
  "407": " à¦",
  "408": "à§à¦¤ à¦",
  "409": "à§à¦§",
  "410": "¥à§à¦",
  "411": " à¦",
  "412": "à¦¾à¦¦à§à¦¶",
  "413": "à¦¾à¦",
  "414": "à¦¡à¦¼",
  "415": "à§à¦°",
  "416": "à§§à§",
  "417": "à§",
  "418": "à¦¾à¦§",
  "419": "à¦",
  "420": "à¦¤à§à¦¤",
  "421": "à¦°à§à¦¤",
  "422": " à¦¸à¦®",
  "423": "à§à¦° à¦®",
  "424": "à§à¦¨",
  "425": "à§à¦¡",
  "426": " \n",
  "427": "à§à¦",
  "428": "à§à¦ª",
  "429": "à¦¨",
  "430": "à¦",
  "431": "à¦à¦¿",
  "432": "à¦¾ à¦¹à¦¯à¦¼",
  "433": "¯à§",
  "434": "à§à¦° à¦",
  "435": " à¦",
  "436": "à¦¨",
  "437": "à§à¦° à¦",
  "438": "à¦§à§à¦¯",
  "439": "à¥¤ à¦",
  "440": "à§¦à§¦",
  "441": "à¦",
  "442": "à§à¦¨",
  "443": "à¦¾ à¦¬",
  "444": "à¦¬à¦",
  "445": " à§¨",
  "446": "à¦¸à§à¦¥",
  "447": "à§¨",
  "448": "à§à¦",
  "449": "à¦®à¦¾à¦¨",
  "450": "à¦",
  "451": "à§à¦",
  "452": "        ",
  "453": "à§à¦¤",
  "454": "à¦«",
  "455": "à¦¿à¦°",
  "456": "à¦¿à¦¦",
  "457": "à§à¦° à¦¬",
  "458": "à§à¦¯à¦¾à¦¨",
  "459": " à¦¹à¦¯à¦¼",
  "460": "à¦¾à¦à¦²à¦¾à¦¦à§à¦¶",
  "461": "à¦¾à¦°à¦¤",
  "462": "à¦¦à§à¦§",
  "463": "à§ à¦",
  "464": " à¦¥à§à¦",
  "465": " à¦",
  "466": " à¦¸à¦¾à¦²",
  "467": "à§à¦¬",
  "468": " à¦²",
  "469": "à¦",
  "470": "à¦à§à¦¤",
  "471": "à¦¨à§à¦¤",
  "472": "à§ à¦®",
  "473": "à§, à¦",
  "474": "à¦¾à¦¬à§à¦¦",
  "475": "à¦¿à¦",
  "476": "à¦¾à¦°à¦£",
  "477": "à§à¦ª",
  "478": "à§à¦ ",
  "479": "à¦°à§à¦®",
  "480": "à§ à¦ªà§à¦°",
  "481": "à§",
  "482": "à¦¿à¦­",
  "483": "à§ à¦¦",
  "484": "à¦¾ à¦¸",
  "485": "à¦¿à¦¶à§à¦¬",
  "486": " à¦ªà¦°",
  "487": "à¦¿à¦",
  "488": "à¦¾à¦¶",
  "489": "à§à¦¨",
  "490": "à§à¦",
  "491": "à¦à§à¦²",
  "492": "à¦¿à¦·à§à¦",
  "493": "à¦¿à¦ª",
  "494": "à¦¾à¦à¦°",
  "495": "à¦¾à¦",
  "496": "à§ à¦",
  "497": " à¦¸à¦",
  "498": "à¦à§à¦",
  "499": "¥à¦¾à¦",
  "500": "à§à¦°à§à¦¬",
  "501": "à§ à¦¤",
  "502": "à¦¨à§à¦¦",
  "503": "à¦¾à¦¡à¦¼",
  "504": "à¦¾à¦¥",
  "505": "à§à¦à§à¦°",
  "506": "à¦­à¦¾à¦¬",
  "507": "à§à¦²",
  "508": "à§à¦¤",
  "509": "à¦¾à¦£",
  "510": " à¦§",
  "511": "à§à¦",
  "512": "à¦¿à¦²",
  "513": "à§à¦¯à¦¼",
  "514": "à¦à§à¦",
  "515": "à§à¦²",
  "516": "à§à¦°à¦¿à¦",
  "517": "à¦°à§à¦¥",
  "518": "à§à¦¥",
  "519": "¯à¦¾à¦¯à¦¼",
  "520": " à§§à§¯à§",
  "521": "à§à¦",
  "522": "à§ à¦",
  "523": "à§ à¦¨",
  "524": "à¦¾à¦",
  "525": "à¦¿à¦¹",
  "526": "à§à¦° à¦ª",
  "527": "à§à¦·",
  "528": "à¦à§à¦°",
  "529": "à§à¦¯à¦¬",
  "530": " à¦à¦",
  "531": "à¦ ",
  "532": "à§à¦®",
  "533": "à¦",
  "534": "à§",
  "535": "à¦ªà§à¦°",
  "536": " à¦®à§",
  "537": "à§«",
  "538": "à¦ª",
  "539": "à¦¿à¦",
  "540": "à§à¦¥à¦¿à¦¬",
  "541": ", à¦¬",
  "542": " à¦à§à¦°",
  "543": "à¦¿à¦¤ à¦¹à¦¯à¦¼",
  "544": "à¦¾à¦",
  "545": "à§à¦·",
  "546": " à¦à¦¨",
  "547": "à§à¦®",
  "548": "à§à¦° à¦ªà§à¦°",
  "549": "à§§",
  "550": "à§à¥¤\n",
  "551": "à§à¦¨",
  "552": "à§à¦° à¦",
  "553": " à¦¯",
  "554": "à¦à¦°",
  "555": "à¦¾, à¦",
  "556": "à¦§à¦¾à¦¨",
  "557": "à¦à§à¦à¦²",
  "558": "à¦°à¦",
  "559": "à¦¾à¦",
  "560": "à¦¿à¦£",
  "561": "¯à§à¦",
  "562": "à¦¹à¦¾à¦¸",
  "563": "à¦°à§à¦£",
  "564": "à§à¦¬à§",
  "565": "à§à¦·",
  "566": "à¦¿à¦¸à§à¦¤",
  "567": "à¦¸à§à¦",
  "568": "à¦¾à¦° à¦¸",
  "569": "à¦¯à¦¼à§à¦",
  "570": "à¦¾ à¦à¦°",
  "571": " à¦¶à¦¤",
  "572": "­à¦¾à¦·",
  "573": "à§à¦²",
  "574": "à¦¾ à¦ª",
  "575": "à§®",
  "576": "à¦à¦°à§à¦ª",
  "577": "à§à¦¤",
  "578": "à¦¨à§à¦¯",
  "579": "à§à¦¦",
  "580": "à§©",
  "581": "à§à¦° à¦",
  "582": " â",
  "583": "à¦¿ à¦¬",
  "584": "à¦¤à¦¿à¦¹",
  "585": "à§à¦° à¦",
  "586": "à§à¦à¦¿à¦²",
  "587": "à¦à§à¦·à¦¿à¦£",
  "588": "à¦¾à¦·à§à¦à§à¦°",
  "589": "à§à¦¨à¥¤ à¦",
  "590": "à§¬",
  "591": " à¦à§à¦°à¦¿à¦·à§à¦",
  "592": "à¦à¦¿à¦¬",
  "593": "à¦¿à¦¨à§à¦¨",
  "594": "à§à¦",
  "595": "­à¦¾à¦°à¦¤",
  "596": "à§ à¦",
  "597": "¢à¦¾à¦",
  "598": "à¦¤à¦¿à¦",
  "599": "à§§à§¯à§",
  "600": "à§ª",
  "601": "à¦¾à¦° à¦¬",
  "602": "à§ à¦¶",
  "603": "à¦¨ à¦à¦°",
  "604": "à§à¦°à§",
  "605": "à§à¦",
  "606": " à¦«",
  "607": "à§à¦¸",
  "608": "à¦¡",
  "609": "à§à¦¸",
  "610": "à¦¸à¦®",
  "611": "à¦¿à¦¸à§à¦¬",
  "612": "à§ à¦°",
  "613": "à¦¿à¦",
  "614": "à§ à¦",
  "615": "à§à¦° à¦¦",
  "616": "à§­",
  "617": "à¦¤à§à¦¤à¦° à¦",
  "618": "à§à¦° à¦®à¦§à§à¦¯",
  "619": "à¦à§à¦¯",
  "620": "à§ à¦à¦",
  "621": " à¦à§à¦°à¦¿à¦·à§à¦à¦¾à¦¬à§à¦¦",
  "622": "à¦°à¦£",
  "623": " à¦­à¦¾à¦·",
  "624": "à¦à§à¦",
  "625": "à¦à§à¦²à§",
  "626": "à§à¦¬à§à¦ª",
  "627": " à¦à¦ª",
  "628": "à§à¦®",
  "629": "à¦¾ à¦ªà§à¦°",
  "630": ", à¦¸",
  "631": "à§ à¦¥à¦¾à¦",
  "632": "à¦",
  "633": "à¦¥à¦®",
  "634": "à¦¤à¦¿à¦¹à¦¾à¦¸",
  "635": ")\n",
  "636": ", à¦¯",
  "637": "à¦¸à¦",
  "638": "à¦¬à¦¸à§à¦¥",
  "639": ", à¦",
  "640": "à¦¶à¦¿à¦¯à¦¼",
  "641": "à¦à§à¦¤ à¦",
  "642": "à¦à¦¶",
  "643": "à§à¦¥à¦¿à¦¬à§à¦° à¦",
  "644": "à¦à§à¦°à¦¾à¦®",
  "645": "à¦¾ à¦¦",
  "646": "à¦¾à¦° à¦®",
  "647": "à¦à¦¯à¦¼",
  "648": "à¦¶à§à¦",
  "649": "à§à¦ª",
  "650": " à¦à¦à§à¦à¦²",
  "651": "à¦¹à¦¾à¦¸à¦¾à¦à¦°",
  "652": "«à¦²",
  "653": "à§ à¦¯",
  "654": "à§à¦",
  "655": "à¦à¦¨",
  "656": " à¦®à§à¦à¦¿à¦¬",
  "657": "à§à¦¯à¦¾à¦²",
  "658": " à¦",
  "659": "à¦¸à¦²",
  "660": "à§à¦° à¦¨",
  "661": "à¦¾ à¦¹",
  "662": " à¦¹à¦²",
  "663": "à¦¶à§à¦à¦¿à¦®",
  "664": "à§à¦",
  "665": "à¦¾à¦° à¦ª",
  "666": "à§à¦°à¦®",
  "667": "à§à¦¯à¦®",
  "668": " à¦à¦¨",
  "669": "à§à¥¤ à¦",
  "670": " à¦ªà§à¦°à¦¤",
  "671": "à¦£à§à¦¡",
  "672": "à¦¿à¦¸à§à¦¤à¦¾à¦¨",
  "673": " à¦",
  "674": " à¦¸à¦®à¦¯à¦¼",
  "675": " à¦à¦¿à¦²",
  "676": "à¦¸à§à¦¤",
  "677": "à¦¾ à¦®",
  "678": " à¦¨à¦¾à¦®",
  "679": "                ",
  "680": "à¦¾à¦à¦¶",
  "681": "à¦¾ à¦",
  "682": "à§ à¦",
  "683": "à¦¿à¦",
  "684": "à¦¾à¦¹à¦¿à¦¤",
  "685": "à¦¾à¦°à§",
  "686": "à¦à¦¾à¦²",
  "687": "à§à¦° à¦",
  "688": "à¦¬à§à¦¦",
  "689": "à¦¿à¦¯à¦¼à¦¨",
  "690": "à§à¦¬",
  "691": "à¦°à§à¦¯à¦",
  "692": "à¦à§à¦à¦à§à¦°à¦¾à¦®",
  "693": "à§à¦ à¦®à§à¦à¦¿à¦¬",
  "694": "à¦¿à¦­à¦¿à¦¨à§à¦¨",
  "695": "à¦¾à¦à¦¿à¦¸à§à¦¤à¦¾à¦¨",
  "696": " à¦¦à§à¦¶",
  "697": " à¦à§à¦²",
  "698": "à¦¬à¦°à§à¦¤",
  "699": "à§à¦",
  "700": "à¦¾ à¦¯à¦¾à¦¯à¦¼",
  "701": "¯à§à¦à§à¦¤",
  "702": "à¦¿à¦",
  "703": "à¦¾ à¦",
  "704": "à¦¾à¦­",
  "705": "à¦¿à¦°à§à¦",
  "706": " à¦°à¦¾à¦",
  "707": "à¥¤ à¦¬",
  "708": "à¦¿à¦à§",
  "709": "à¦à§à¦",
  "710": "à§à¦¤",
  "711": "à§à¦°à§à¦£",
  "712": "à¦¾à¦à¦¯à¦¼",
  "713": "à§à¦®",
  "714": " à§§",
  "715": "à¦°à¦à¦¾à¦°",
  "716": "à¦¿à¦·à§à¦ ",
  "717": " à¦¬à¦",
  "718": "à¦®à§à¦°",
  "719": "à§ à¦à¦¬à¦",
  "720": "à¦¸à§à¦à§à¦¤",
  "721": "à§à¦¨à§à¦¦",
  "722": "à§ à¦ªà¦°",
  "723": "à¦¾ à¦¨",
  "724": "à¦¾à¦¤",
  "725": "à¦¾à¦¹à¦¿à¦¤à§à¦¯",
  "726": "à¦¾à¦¨à§à¦¤",
  "727": "à§à¦¹",
  "728": "à¦¿ à¦¸",
  "729": "à§à¦¤à¦¿à¦",
  "730": "à¦¤à§à¦¯",
  "731": " à¦¬à¦²",
  "732": " à§¨à§¦",
  "733": "à¦°à§à¦",
  "734": "à§à¦·",
  "735": "à¦¾ à¦à¦¬à¦",
  "736": "à¦¯à§à¦",
  "737": " à¦¡",
  "738": "à§à¦",
  "739": "à¦¾à¦¨à§à¦·",
  "740": "à¦¨à§à¦¤à¦¿à¦",
  "741": " \"",
  "742": "à¦¾à¦",
  "743": "°à¦¾à¦",
  "744": "à¦¾ à¦",
  "745": "à§à¦¬",
  "746": " à§©",
  "747": "à¦®à§à¦°à¦¿à¦",
  "748": "à¦¾à¦° à¦ªà§à¦°",
  "749": "à§à¦¥à¦¾à¦¨",
  "750": "à¦¾à¦° à¦",
  "751": " à¦à§à¦°",
  "752": " à¦¬à¦¿à¦¶à§à¦¬",
  "753": "à§à¦¯à¦¼",
  "754": "à§à¦",
  "755": "à¦¹à¦¾à¦¦à§à¦¶",
  "756": "à¥¤ à¦¤",
  "757": "à§à¦¯à¦¼",
  "758": "à§à¦¯à¦¬à¦¹",
  "759": "¯à§à¦",
  "760": "à§à¦­",
  "761": "à¦¿à¦",
  "762": "à¥¤ à¦à¦",
  "763": "à¦¿à¦",
  "764": "à¦¨à§à¦¨",
  "765": "à§à¦¯à¦¤",
  "766": "à¦¾\n",
  "767": "à¦¾à¦¤ à¦",
  "768": "à§à¦¦",
  "769": ", à¦ª",
  "770": "à§à¦¯à¦",
  "771": "à§ à¦ªà¦¾à¦°",
  "772": "à¦",
  "773": "à¦¹à¦°",
  "774": "à§ à¦",
  "775": " à¦¹à¦¿à¦¸à§à¦¬",
  "776": "à¦¿à¦",
  "777": "à§à¦¬à¦¾à¦°",
  "778": " à¦à¦°à¦¾ à¦¹à¦¯à¦¼",
  "779": "à¦²à§à¦²",
  "780": " à¦¸à¦¾à¦®",
  "781": "à§à¦¹",
  "782": " à¦§à¦°à§à¦®",
  "783": "à¦¾à¦§à§à¦¯à¦®",
  "784": "à§à¦¯à¦¾à¦¨à§à¦¡",
  "785": "à¦¿à¦ à¦¬",
  "786": "à¦¬à¦¿à¦¦",
  "787": "à§à¦ª",
  "788": "à¦¾ à¦",
  "789": "à¦°à§à¦",
  "790": "à¦¾à¦°à§à¦",
  "791": " à¦­à¦¾à¦°à¦¤",
  "792": " à¦¬à¦¾à¦à¦²à¦¾à¦¦à§à¦¶",
  "793": "â",
  "794": "à§à¦° à¦¶",
  "795": "à¦¾ à¦¶",
  "796": "à¦®à¦¨",
  "797": "à§à¦° à¦à¦¨à§à¦¯",
  "798": "à¦° à¦¬",
  "799": " à¦à¦",
  "800": "à¦¤à¦¿ à¦",
  "801": "à¦¾à¦¨à§à¦¤ à¦",
  "802": "à§¯",
  "803": ", à¦®",
  "804": "à§à¦¯à¦¾à¦¨à§à¦¯",
  "805": "à¦°à§à¦¯à¦¨",
  "806": "à§à¦¶à¦¨",
  "807": "à§à¦",
  "808": "à¦¿ à¦",
  "809": "-à¦",
  "810": "à§à¦°",
  "811": " à¦¬à¦¾à¦à¦²",
  "812": "à¦¾à¦° à¦à¦°",
  "813": "à§à¦¯à¦¾à¦¸",
  "814": "à§ à¦",
  "815": "¯à§à¦¦à§à¦§",
  "816": "à¦¿ à¦ª",
  "817": "à¦° à¦®",
  "818": "à¦®à§à¦ª",
  "819": "à¦¿à¦à§à¦·",
  "820": "à¥¤ à¦¸",
  "821": "à§ à¦à¦¨",
  "822": "à¦¿à¦°à§à¦¬",
  "823": "à¦¾à¦¸à¦¨",
  "824": "à§à¥¤",
  "825": " à¦ªà¦°à¦¿à¦¬",
  "826": "à¦¾à¦¤à§à¦°",
  "827": "à§à¦°",
  "828": "à§à¦®à¦¨",
  "829": "¦à§à¦¶",
  "830": "à¦¨à§à¦¤à§à¦°",
  "831": "à§à¦¸",
  "832": "à¦®à¦¯à¦¼",
  "833": "à§à¦à§à¥¤ à¦",
  "834": "à§à¦¡",
  "835": "à§à¦° à¦à¦",
  "836": "à¦à§à¦",
  "837": "à§à¦¨à§à¦",
  "838": "à¦¿à¦¤ à¦à¦°",
  "839": "à¦®à¦¤",
  "840": " à¦¶à¦¤à¦¾à¦¬à§à¦¦",
  "841": "ªà¦°",
  "842": "à¦¾à¦à¦¦",
  "843": "à§à¦¯à¦¾à¦²à¦¯à¦¼",
  "844": "à¦à¦¨",
  "845": "à§à¦°à§",
  "846": "à§à¦²",
  "847": "à¦¸à¦à¦à§à¦¯",
  "848": " â",
  "849": "à¦¾à¦¹à¦¿à¦¨",
  "850": "à§à¦¯à¦¾à¦ª",
  "851": "à¦²à§à¦²à§à¦",
  "852": "à¦¿à¦§",
  "853": " à§«",
  "854": "à¦¾à¦",
  "855": "à¦°à§à¦¯",
  "856": "à¦° à¦¸",
  "857": " à¦°à¦¯à¦¼à§à¦",
  "858": "à§à¦° à¦à¦¨",
  "859": "à§à¦·à§à¦",
  "860": "à§à¦° à¦¤",
  "861": "à¦¿à¦¨à¦¿ à¦",
  "862": "à¦à¦¿ à¦¬",
  "863": "e ",
  "864": "à§à¦",
  "865": "à¦¿, à¦",
  "866": "à¦ªà¦°",
  "867": "à§à¦¬à¦°",
  "868": "à¦¾à¦à§à¦¨",
  "869": "à¦",
  "870": " à§ª",
  "871": "à¦¾à¦ ",
  "872": "à¦à¦¿à¦",
  "873": "à§¦à§¦à§¦",
  "874": "à¦¾à¦§à§à¦¨",
  "875": "à§¨à§¦",
  "876": " à¦",
  "877": "¯à§à¦à§à¦¤à¦°",
  "878": "à¦°à§à¦¯à¦¨à§à¦¤ à¦",
  "879": "à§à¦°à¦¿à¦à§à¦",
  "880": "à¦°à§à¦¤à¦®à¦¾à¦¨",
  "881": "à§à¦¦à§à¦§",
  "882": "®à¦¹à¦¾à¦¸à¦¾à¦à¦°",
  "883": "à¦¿à¦¨à§à¦¦",
  "884": "à¦",
  "885": "à¦¿à¦²à¦¿à¦¯à¦¼à¦¨",
  "886": "à¦°à§à¦·",
  "887": "à§à¦°à§",
  "888": "à¦¾à¦° à¦¨",
  "889": "à¦à§à¦",
  "890": "à¦¤à¦®",
  "891": "à¦¿à¦¸à§à¦",
  "892": "à¦¾à¦§à¦¾à¦°à¦£",
  "893": "à¦à¦¿à¦° à¦",
  "894": "à¦¬à¦",
  "895": "à¦à¦²",
  "896": "à¦¤à§ à¦ªà¦¾à¦°",
  "897": "à§à¦° à¦à¦ª",
  "898": "à¦à¦¨",
  "899": "à¦¨à§à¦§",
  "900": "à§, à¦¯",
  "901": " à¦¶à¦¬à§à¦¦",
  "902": " à¦à¦¬",
  "903": "à¦¾à¦° à¦¦",
  "904": " à¦à¦à¦°à§à¦ª",
  "905": "à¦£ à¦à¦°",
  "906": " à¦à¦",
  "907": "à¦¾à¦¡",
  "908": "an",
  "909": "à¥¤ à¦®",
  "910": "à§à¦£",
  "911": "à§ à¦¹",
  "912": "à¦¿à¦¸à¦¾à¦¬",
  "913": "à¦¸à§à¦",
  "914": "à¦¨à§à¦¤",
  "915": " à¦¦à¦²",
  "916": "à§à¦²à§",
  "917": " à¦à¦°à§à¦¥",
  "918": "à§ à¦­",
  "919": " à¦ªà§à¦°à§à¦¬",
  "920": "à¦§à§à¦¯à¦",
  "921": "à¦°à¦¿à¦",
  "922": "à¦¾ à¦",
  "923": "à¦à¦¾à¦¡à¦¼",
  "924": "à¦ªà§à¦°à§à¦¬",
  "925": "à¦¦à¦¾à¦¨",
  "926": "à§à¦",
  "927": " à¦à¦¶à¦¿à¦¯à¦¼",
  "928": "à¦§à¦¿à¦",
  "929": "à¦¿à¦¨à§à¦¤",
  "930": "à¦¿à¦°à§à¦¬à¦¾à¦",
  "931": " à¦¸à¦®à§à¦ª",
  "932": "à¦¿à¦¯à¦¼à¦¾à¦¨",
  "933": "à§à¦° à¦",
  "934": "à§à¦§",
  "935": "à¦¿\n",
  "936": "à¦¸à§à¦¯",
  "937": "à§à¦ª",
  "938": "à§à¦à¦¾à¦¨",
  "939": "à¦° à¦¦",
  "940": "à§ à¦à¦",
  "941": "à§à¦¯à¦¬à¦¸à§à¦¥",
  "942": "à§à¦",
  "943": "à¦¾ à¦",
  "944": "à§à¦à¦¾à¦¨",
  "945": "à¦¾à¦®à§",
  "946": ", à¦¤",
  "947": "à§à¦¯à¦¼ à¦¸",
  "948": " à¦¥à§à¦à§",
  "949": "à¦¬à¦¿à¦¦à§à¦¯à¦¾à¦²à¦¯à¦¼",
  "950": "à¦¿à¦¡",
  "951": " à¦¦à§à¦¬à§à¦ª",
  "952": "à¦¬à¦à§à¦¯à¦¼",
  "953": " à¦ªà¦¾à¦à¦¿à¦¸à§à¦¤à¦¾à¦¨",
  "954": " à¦¨à¦¿à¦¯à¦¼",
  "955": "à¦à§à¦¤",
  "956": "à¦¬à¦°à§à¦¤à§",
  "957": "à§à¦®",
  "958": ", ",
  "959": "à§ à¦",
  "960": " à¦°à¦¾à¦·à§à¦à§à¦°",
  "961": "à¦¤à§à¦¤à¦°",
  "962": "¯à¦¦",
  "963": "à¦°à§à¦¶",
  "964": " à¦ªà§à¦°à¦¾à¦¯à¦¼",
  "965": "à¦¿à¦¶à§à¦·",
  "966": "à¦¿à¦¤à§à¦°",
  "967": "à§à¦",
  "968": "à¥¤ à§§à§¯à§",
  "969": "à¦¨à§à¦¤à¦°à§à¦",
  "970": "à¦¯",
  "971": " à¦à§à¦·",
  "972": "à§§à§®",
  "973": "à¦¿ à¦",
  "974": "à¦¾à¦à§à¦¯",
  "975": "à§à¦¬à¦¾à¦§à§à¦¨",
  "976": " à¦ªà§à¦°à¦§à¦¾à¦¨",
  "977": " à¦à¦à¦¶",
  "978": ", à¦",
  "979": "à¦¤à¦¿à¦¹à¦¾à¦¸",
  "980": "à¦¿ à¦¹",
  "981": "à¦à¦¨",
  "982": "à¦à¦¿ à¦¸",
  "983": "à§à¦¤à§à¦°",
  "984": "à¦¸à¦¬",
  "985": "à¦«à§à¦°à¦¿à¦",
  "986": "à§ à¦à¦¬à¦¸à§à¦¥",
  "987": " à¦ªà§à¦°",
  "988": "à¦¸à¦®à§à¦¹",
  "989": " à§­",
  "990": " à¦à¦à¦à¦¿ à¦",
  "991": "à§ à¦²",
  "992": "à§à¦¨à§à¦¦à§à¦°",
  "993": " à§§à§®",
  "994": "à¦¤à§à¦¤à§à¦¬",
  "995": " à§¬",
  "996": "à¦¬à¦¾à¦¹",
  "997": " à¦à¦¾à¦¤",
  "998": "à¦¾ à¦¤",
  "999": "à§ à¦«",
  "1000": "à§à¦° à¦¸à¦¾à¦¥",
  "1001": "à§ à¦­à¦¾à¦°à¦¤",
  "1002": " à¦à§",
  "1003": "à§à¦° à¦",
  "1004": "à¦£à§à¦¡à¦²",
  "1005": "à¦¿ à¦à¦°",
  "1006": "à¦¨à¦¾ à¦à¦°",
  "1007": "à¦²à¦¾à¦",
  "1008": "à§à¦·à§à¦ ",
  "1009": "à¦¾à¦° à¦",
  "1010": " (à§§à§¯à§",
  "1011": " à¦¢à¦¾à¦",
  "1012": "st",
  "1013": "à¦¤à§à¦¤à¦®",
  "1014": " à§¨à§¦à§¦",
  "1015": "er",
  "1016": "à§à¦ª",
  "1017": "à¦¾à¦",
  "1018": "à¦¾ à¦°",
  "1019": "à§à¦¦",
  "1020": "à§à¦",
  "1021": "à¥¤ à¦",
  "1022": " à¦§à¦°",
  "1023": "à§à¦° à¦ªà¦°",
  "1024": "à§ à¦¬à¦¾à¦à¦²à¦¾à¦¦à§à¦¶",
  "1025": "à¦à§à¦°",
  "1026": " à¦ªà¦°à§à¦¯à¦¨à§à¦¤ à¦",
  "1027": "à¦° à¦ª",
  "1028": "à¦¿ à¦¦",
  "1029": "à¦à¦°",
  "1030": " à¦¦à§",
  "1031": "à¦à¦¾à¦¤",
  "1032": "à§à¦à§à¦¤",
  "1033": "à¦¾à¦° à¦",
  "1034": "à¦¿ à¦®",
  "1035": " à¦¦à¦à§à¦·à¦¿à¦£",
  "1036": "à¦¾à¦à¦¨",
  "1037": "à¦¾à¦¹à§",
  "1038": "à¦­à¦¾à¦·",
  "1039": "à§à¦¹à¦¤à§à¦¤à¦®",
  "1040": "à¦°à§à¦¤à¦¨",
  "1041": "à¥¤ à¦",
  "1042": "à§à¦²",
  "1043": "à§à¦¯à¦¼à¦¾à¦¡à¦¼",
  "1044": "à§à¦¯à¦¾à¦",
  "1045": "à§à¦¨à¥¤\n",
  "1046": "à§ à¦§",
  "1047": "à¦¸à§à¦à§à¦°",
  "1048": "à¦­à¦¾à¦",
  "1049": "à§à¦",
  "1050": "à§à¦°",
  "1051": "à¦¾à¦° à¦à¦¨à§à¦¯",
  "1052": "à¦° à¦¨",
  "1053": "à¦¹à¦®à¦¾à¦¨",
  "1054": "â",
  "1055": " à¦®à¦¹",
  "1056": "à§à¦° à¦",
  "1057": "or",
  "1058": "à§à¦°à§à¦¤",
  "1059": "à¦¿à¦¨à§à¦¤à§",
  "1060": "à¦¾à¦à§à¦¤",
  "1061": "à¦",
  "1062": "à¦à¦°à§à¦",
  "1063": "à§à¦¦à§à¦°",
  "1064": "à§à¦¬à¦¨",
  "1065": "à¦¨à§à¦¤à¦°à§à¦à¦¾à¦¤",
  "1066": " à¦¥à¦¾à¦",
  "1067": "à¦¾à¦°à§à¦¥",
  "1068": " à¦¸à¦à¦¸à§à¦à§à¦¤",
  "1069": "à§à¦¯à¦¾à¦°",
  "1070": "à¦¤à§",
  "1071": "on",
  "1072": " à¦à¦°à§à¥¤ à¦",
  "1073": "â",
  "1074": "à¦°à¦¬",
  "1075": "à§ à¦ªà¦°à¦¿à¦",
  "1076": "à¦¾ à¦",
  "1077": "°à¦¹à¦®à¦¾à¦¨",
  "1078": "à¦¶à¦¾à¦¨à§à¦¤ à¦",
  "1079": "à§à¦¬",
  "1080": " à¦²à§à¦",
  "1081": "à¦¾à¦·à§à¦",
  "1082": " à¦®à¦¾à¦¨à§à¦·",
  "1083": "à¦¿à¦¤à§à¦¬",
  "1084": "à§à¦®",
  "1085": ", à¦à¦¬à¦",
  "1086": "à¦¿à¦¯à¦¼à¦¾",
  "1087": "à¥¤ à¦ª",
  "1088": "le",
  "1089": "à¦°à¦",
  "1090": "à¦",
  "1091": "¯à§à¦à§à¦¤ à¦",
  "1092": "à§à¦ªà§à¦°",
  "1093": "à¦° à¦",
  "1094": "à¦¿à¦²à§à¦ª",
  "1095": "à¦¾ à¦­à¦¾à¦·",
  "1096": "à¦¾à¦·à§à¦à§à¦° à¦",
  "1097": "à¦¾à¦¤à§à¦° à¦",
  "1098": "à§à¦",
  "1099": " à¦à¦®à§à¦°à¦¿à¦",
  "1100": "â",
  "1101": " à¦¬à§à¦¶",
  "1102": "à¦à§à¦²",
  "1103": "th",
  "1104": "à¦à¦¾à¦¶",
  "1105": "à¦¿à¦° à¦®",
  "1106": "à¦¦à§à¦¶",
  "1107": "à¦à¦°à§à¦ª",
  "1108": ",à§¦à§¦à§¦",
  "1109": "à¦¯à§à¦à§à¦¯",
  "1110": "à¦¸à¦²à¦¿à¦®",
  "1111": "s ",
  "1112": "à¦¿ à¦à¦¬à¦",
  "1113": "à¦à¦à¦¿ à¦",
  "1114": "à¦®à§à¦¬",
  "1115": "à¦¬à¦¾à¦¯à¦¼",
  "1116": "à¦¾à¦°à§à¦",
  "1117": "à§à¦¸",
  "1118": " à¦®à¦¹à¦¾à¦¸à¦¾à¦à¦°",
  "1119": "à¦§à§à¦¨",
  "1120": "à¦¿à¦¤ à¦¹",
  "1121": "à¦¬à¦¹",
  "1122": "-à¦¬",
  "1123": "à¦¾à¦£à¦¿à¦",
  "1124": "-à§§à§¯à§",
  "1125": "à¦à¦²",
  "1126": "à¦ à¦¨",
  "1127": " â",
  "1128": "à¦¬à¦²",
  "1129": "à§ à¦¸à¦",
  "1130": "à§ à¦°à¦¯à¦¼à§à¦",
  "1131": " à§¨à§¦à§§à§",
  "1132": "à¦¿ à¦¨",
  "1133": " à¦¦à§à¦",
  "1134": "li",
  "1135": "à¦¿à¦·à¦¯à¦¼",
  "1136": " à¦à§à¦°à¦¹",
  "1137": " à¦à§à¦°à¦¿à¦·à§à¦à¦¾à¦¬à§à¦¦à§à¦°",
  "1138": "à¦¾ à¦¥à§à¦",
  "1139": "à§ à¦¬à¦²",
  "1140": "à¦à¦¾à¦¨",
  "1141": "à§ à¦à¦à¦à¦¿ à¦",
  "1142": "à§¨à§¦à§¦",
  "1143": "à§à¦°à¦¿à¦",
  "1144": "à¦¾à¦²à¦¿à¦",
  "1145": " à¦à¦²",
  "1146": "à¦¨à§à¦¡",
  "1147": " à§§à§«",
  "1148": " à¦¶à¦¤à¦¾à¦à¦¶",
  "1149": " à¦ªà¦¶à§à¦à¦¿à¦®",
  "1150": "à¦¿à¦¤ à¦¬",
  "1151": " à¦¤à¦¿à¦¨",
  "1152": "à§à¦¯à¦¼ à¦¬",
  "1153": " à¦¶à¦¹à¦°",
  "1154": "à¦¦à§à¦­",
  "1155": "à¦¾à¦¨à¦¬",
  "1156": "à¦¤à§à¦¤à¦° à¦",
  "1157": "à§ à¦¯à¦¾à¦¯à¦¼",
  "1158": "à§à¦°à§à¦",
  "1159": " à§®",
  "1160": " à¦¬à§",
  "1161": "à¦¾à¦°à§à¦®",
  "1162": "à§à¦°",
  "1163": " à¦¦à¦¿à¦¯à¦¼",
  "1164": "à§à¦¦à§à¦§",
  "1165": "à§à¦° à¦°à¦¹à¦®à¦¾à¦¨",
  "1166": "à§à¦",
  "1167": "à§à¦¬à¦¿à¦¤",
  "1168": "à¥¤ à¦ªà§à¦°",
  "1169": "à¦¶ à¦¶à¦¤à¦¾à¦¬à§à¦¦",
  "1170": "à¦¾à¦£à¦¿à¦à§à¦¯",
  "1171": " à¦à¦²",
  "1172": "à§à¦¨à§",
  "1173": "à¦¿à¦¨à§à¦¦à§",
  "1174": "à¦¾à¦",
  "1175": "à¦°à¦«",
  "1176": "à¦¬à¦¾à¦à¦²à¦¾à¦¦à§à¦¶",
  "1177": "à¦¨à§à¦¤à§à¦°à§",
  "1178": "à¦­à¦¿à¦",
  "1179": " à¦à¦¤à§à¦¤à¦° à¦",
  "1180": "à¦¾ à¦¬à¦¿à¦¶à§à¦¬",
  "1181": "à¦à¦¤",
  "1182": " à¦¸à¦¹",
  "1183": " à¦¸à§à¦¥à¦¾à¦¨",
  "1184": "à¦¾à¦²à§",
  "1185": "à¦¤à¦¨",
  "1186": "à¦¿à¦° à¦¸",
  "1187": "à§à¥¤ à¦à¦",
  "1188": " à¦à¦¿à¦à§",
  "1189": "à¦¤à§à¦¨",
  "1190": "à¦¿ à¦",
  "1191": "à¦¤à¦¿à¦·à§à¦ ",
  "1192": "à¦¦à§à¦¬à§à¦ª",
  "1193": "à¦¾à¦¬à¦²",
  "1194": "à§à¦°à§",
  "1195": "à§à¦¥à¦¾à¦ª",
  "1196": "à§à¦¯à¦¼à¦¾à¦°",
  "1197": "à¦¨à§à¦¤à¦°à§à¦à¦¾à¦¤à¦¿à¦",
  "1198": "à¦¾à¦¨à§",
  "1199": " à¦à¦²",
  "1200": " à¦¸à¦°à¦à¦¾à¦°",
  "1201": "à¦¿à¦¬à§à¦¶",
  "1202": "ar",
  "1203": "in",
  "1204": "à¦¸à¦¦",
  "1205": " à¦¬à¦à¦°",
  "1206": "à¦¾à¦",
  "1207": "à¦¾à¦à§à¦",
  "1208": "à§ à¦à¦¸",
  "1209": "à¦°à§à¦­",
  "1210": "à§à¦¡",
  "1211": "à¦²à§à¦¯à¦¾à¦¨à§à¦¡",
  "1212": "à§à¦¥à¦¿à¦¬à§",
  "1213": "à¦¿à¦¤à§à¦¤",
  "1214": "à¦¤à§à¦¬",
  "1215": "à§à¦¯à¦¾à¦",
  "1216": "à¦à§à¦°à¦¹",
  "1217": "à¦¦à¦¸à§à¦¯",
  "1218": "à¦®à§à¦°à¦¿à¦",
  "1219": "à¥¤ à¦à¦à¦¾à¦¡à¦¼",
  "1220": "à¦¾ à¦²",
  "1221": " à¦à¦à§à¦à¦à§à¦°à¦¾à¦®",
  "1222": ", à¦¨",
  "1223": "à¦° à¦",
  "1224": "à§à¦à§à¦¤ à¦",
  "1225": "à¦° à¦",
  "1226": "à¦¬à¦¾à¦¦",
  "1227": "à¦ªà§",
  "1228": "à§ (",
  "1229": "à¦¨",
  "1230": " à¦à¦¬à¦¸à§à¦¥",
  "1231": "à¦¿à¦à¦­à¦¾à¦¬",
  "1232": "à¦¾-",
  "1233": "à§¯à§",
  "1234": "à¦¯à¦¼à¦¨",
  "1235": "à¦¿ à¦­à¦¾à¦·",
  "1236": " à¦¸à¦¾à¦¹à¦¿à¦¤à§à¦¯",
  "1237": "à§à¦°à§à¦¤à§à¦¬",
  "1238": " à¦¯à§à¦",
  "1239": " à§§à§¬",
  "1240": "à§à¦¯à¦¤à¦®",
  "1241": "à¦à¦°à¦£",
  "1242": "at",
  "1243": "à¦¸à¦²à¦¾à¦®",
  "1244": "à§à¦° à¦¹",
  "1245": "¨à§à¦¤",
  "1246": "à§à¦° à¦­",
  "1247": "à¦¾à¦°à§à¦¸",
  "1248": "à¦¾à¦²à¦¯à¦¼",
  "1249": "à¦²à§à¦²à§à¦à¦¯à§à¦à§à¦¯",
  "1250": "à¦¨à§à¦¥",
  "1251": " à¦à¦°à§à¦¨",
  "1252": "à§à¦¯à¦¾à¦¯à¦¼",
  "1253": "à¦§à§à¦¨à¦¿à¦",
  "1254": "à§à¦¯à¦¾à¦®",
  "1255": "à¦¨à¦¿à¦",
  "1256": "à§à¦®à¦¾à¦¨",
  "1257": "à¦¶à¦¾à¦¹à§",
  "1258": "à¦¾à¦¸à§à¦¤",
  "1259": "à¦¹à¦¾à¦¸à¦¾à¦",
  "1260": " à¦à¦¨à§à¦¯à¦¾à¦¨à§à¦¯",
  "1261": "à§ ",
  "1262": "à¦¾à¦¨à¦¾à¦¡",
  "1263": " à¦¦à§à¦¬à¦¾à¦°",
  "1264": "à§à¦à§à¦·",
  "1265": " à§§à§¦",
  "1266": "à§à¦¡à¦¼",
  "1267": "à¦¾à¦°à§à¦à¦¿à¦¨",
  "1268": "Â ",
  "1269": " à¦ªà§à¦¥à¦¿à¦¬à§à¦° à¦",
  "1270": " à¦¸à¦¾à¦à¦°",
  "1271": "à¦ªà§à¦°à§à¦£",
  "1272": "à¦¿ à¦",
  "1273": "à§à¦°à¦¾à¦à§à¦¯",
  "1274": "à¦¸à§à¦à§à¦°à§à¦²",
  "1275": "à¦²à§à¦ª",
  "1276": " à¦¦à¦¿à¦",
  "1277": "à¦à¦¯à¦¼à¦¾à¦®à§",
  "1278": "à§à¦ à¦®à§à¦à¦¿à¦¬à§à¦° à¦°à¦¹à¦®à¦¾à¦¨",
  "1279": "à§à¦",
  "1280": "à§ à¦¬à¦¾à¦à¦²",
  "1281": "à§à¦° à¦",
  "1282": "à§à¦¹",
  "1283": "à¦­à§à¦®",
  "1284": "¯à§à¦à§à¦¤à¦°à¦¾à¦·à§à¦à§à¦°",
  "1285": "à§à¦·à§à¦",
  "1286": "§à¦°à§à¦®",
  "1287": " :",
  "1288": "à§à¦° à¦®à¦¾à¦§à§à¦¯à¦®",
  "1289": "à¦ªà¦¥",
  "1290": "à¦¾à¦§à¦¿à¦",
  "1291": "à§à¦²à¦¨",
  "1292": "à§à¦° à¦¸à¦",
  "1293": "à§à¦¯à¦¸",
  "1294": "à¦¾ à¦¯",
  "1295": "à¦¯à¦¼à§",
  "1296": " à¦­à§",
  "1297": " à¦¹à¦²à§",
  "1298": "à¦¾ à¦à¦¨",
  "1299": "à¦¾à¦° à¦¹",
  "1300": "à§à¦à¦¯à¦¼",
  "1301": " à¦ à¦¬",
  "1302": "à¦­à¦¾à¦°à¦¤",
  "1303": ", à¦",
  "1304": " à¦ªà§à¦°à¦¤à¦¿à¦·à§à¦ ",
  "1305": ", à¦",
  "1306": "à¦° à¦®à¦§à§à¦¯",
  "1307": "à¦¾à¦¹à¦¿à¦¨à§",
  "1308": "à¦à¦¯à¦¼à¦¾à¦®à§ à¦²à§à¦",
  "1309": "ro",
  "1310": "à¦ªà§à¦à§à¦",
  "1311": "à¦¾ \n",
  "1312": "à§à¦° à¦¦à¦¿à¦",
  "1313": "à¦¾à¥¤ à¦",
  "1314": "à§à¦°à¦¿à¦à¦¿à¦¶",
  "1315": "à§,",
  "1316": " à¦à¦°à¦¤",
  "1317": "à¦¿à¦à§à¦à¦¾à¦¨",
  "1318": "à§à¦¬à¦¾à¦§à§à¦¨à¦¤",
  "1319": "¯à§¦",
  "1320": "à¦¿à¦",
  "1321": "à¦¬à¦à§à¦",
  "1322": "à§à¦° à¦ªà§à¦°à¦§à¦¾à¦¨",
  "1323": "à§à¦¯à¦¾à¦¯à¦¼",
  "1324": "à§à¦¯à¦¾à¦¯à¦¼à§",
  "1325": " à¦¶à¦¤à¦",
  "1326": "à§à¦à§à¥¤\n",
  "1327": "à¦à¦¾à¦°à§",
  "1328": "à§à¦¯à¦¬à¦¹à§à¦¤",
  "1329": "à¦¶à¦",
  "1330": ", à¦",
  "1331": ", à¦¦",
  "1332": "à¦¿à¦°à§à¦¬à¦¾à¦à¦¨",
  "1333": " à¦­à§à¦®",
  "1334": "à¦¨à§à¦¦à§à¦²à¦¨",
  "1335": " à¦ªà§à¦°à¦¥à¦®",
  "1336": "à¦¨à¦¾à¦¯à¦¼",
  "1337": "d ",
  "1338": "                                ",
  "1339": ", à¦",
  "1340": "à§à¦¨à¥¤ à¦¤",
  "1341": "à§à¦¯à¦¾à¦¨à§à¦",
  "1342": "à§à¦°à§à¦¤",
  "1343": "à¦¾à¦°à§à¦¬",
  "1344": "à¦¾à¦° à¦®à¦§à§à¦¯",
  "1345": "à¦°à§à¦§",
  "1346": "à§ à¦¸à¦®",
  "1347": "à§à¦·à§à¦ ",
  "1348": "à¦¿.",
  "1349": "à¦",
  "1350": "à§ à¦ªà§à¦°à¦¾à¦¯à¦¼",
  "1351": " à¦à§à¦°à¦¿à¦¸à§à¦",
  "1352": " à¦à¦¾à¦¤à§à¦¯à¦¼",
  "1353": " à¦¹à¦¾à¦¸",
  "1354": "à§à¦",
  "1355": " à¦®à¦¿à¦²à¦¿à¦¯à¦¼à¦¨",
  "1356": "ac",
  "1357": "à¦¶à¦¾à¦¨à§à¦¤ à¦®à¦¹à¦¾à¦¸à¦¾à¦à¦°",
  "1358": "à§à¦°à§à¦¯",
  "1359": "à¦¾ (",
  "1360": "à¦¾à¦à¦¾à¦²",
  "1361": "à¦à¦¾à¦°",
  "1362": "à§à¦¯à¦¬à¦¹à¦¾à¦° à¦à¦°",
  "1363": " à¦ à¦¸",
  "1364": "à§à¦·à¦£",
  "1365": "à§à¦",
  "1366": "à§à¦°à§à¦",
  "1367": "à¦¿à¦­à¦¾à¦",
  "1368": "¯à¦¦à¦¿à¦",
  "1369": "à¦¾à¦",
  "1370": "à¦à§à¦²",
  "1371": "à¦¦à§",
  "1372": " à§§à§¯à§­",
  "1373": "à¦¿à¦°à§à¦§",
  "1374": " à¦¹à¦¿à¦¸à¦¾à¦¬",
  "1375": ", à¦¶",
  "1376": "à§à¦·à§à¦ ",
  "1377": "à¦¤à§à¦¯à¦¾à¦¦",
  "1378": "à¦¿ à¦¹à¦¯à¦¼",
  "1379": "à§à¦­",
  "1380": ", à¦",
  "1381": "à¦°à¦¾à¦¸",
  "1382": "\n|",
  "1383": "à¦¾à¦à¦¯à¦¼à¦¾ à¦¯à¦¾à¦¯à¦¼",
  "1384": "à¦¾à¦° à¦ªà¦°",
  "1385": "à§ à¦¥à¦¾à¦à§à¥¤ à¦",
  "1386": "\n ",
  "1387": " à¦à¦®",
  "1388": "à¦à¦£",
  "1389": "à¦°à§à¦¶à¦¨",
  "1390": "¯à¦à¦¨",
  "1391": "à¦¾ à¦¹à¦²",
  "1392": " à§§à§­",
  "1393": "à¦¾à¦à¦²",
  "1394": "à¦°à§à¦¤à§",
  "1395": "à¦¾ à¦",
  "1396": "à§à¦ªà¦¾à¦²",
  "1397": "à¦¥à§à¦¯",
  "1398": "à§à¦°à§à¦¤à§à¦¬à¦ªà§à¦°à§à¦£",
  "1399": "à§à¦° à¦¸à¦®à¦¯à¦¼",
  "1400": " à¦à¦¬à¦ à¦¬",
  "1401": "à¦¨à¦¸à¦à¦à§à¦¯",
  "1402": "à¦·à§à¦£",
  "1403": "à§ à¦¢à¦¾à¦",
  "1404": "à¦à¦¿à¦¤à§à¦°",
  "1405": "à¦¾à¦à§à¦¤à¦¿à¦",
  "1406": "à§à¦¦à§à¦° à¦",
  "1407": " à§§à§¨",
  "1408": "à§à¦° à¦«à¦²",
  "1409": " à¦à¦²à¦¾à¦",
  "1410": "à¦¾à¦°à§à¦®à¦¾à¦¨",
  "1411": " à¦à§à¦°à¦¿à¦à§à¦",
  "1412": " à¦à¦¬",
  "1413": "à¦¾à¦¤à§à¦¯à¦¼",
  "1414": "à¦¾à¦à§à¦",
  "1415": "-à¦ª",
  "1416": "à§à¦²à¦¤",
  "1417": "à¦¿à¦¤à§à¦° à¦",
  "1418": "à¦¨à§à¦¯",
  "1419": "à¦°à§à¦¨",
  "1420": "à§ à¦¬à¦¿à¦¶à§à¦¬",
  "1421": " à¦à§à¦²à§à¦¯à¦¼à¦¾à¦¡à¦¼",
  "1422": "à¦¾ à¦ªà¦°",
  "1423": "à¦¾ à¦¬à¦²",
  "1424": "à§à¦¬à¦¨",
  "1425": " à¦¸à¦¾à¦®à§à¦°à¦¾à¦à§à¦¯",
  "1426": "à¦¾ à¦",
  "1427": "à¦¿ à¦°",
  "1428": "à¦¾à¦° à¦¶",
  "1429": "en",
  "1430": "à§à¦",
  "1431": "à§ à¦¬",
  "1432": "à¦¯à¦¼à§à¦",
  "1433": "à¦¿ à¦ªà§à¦°",
  "1434": ", à¦°",
  "1435": "à¦¿à¦à¦¾à¦°",
  "1436": " à¦ªà¦°à¦¿à¦",
  "1437": "à¥¤ à¦¶",
  "1438": "à¦¾à¦à§à¦à¦²",
  "1439": " à¦¹à¦¤",
  "1440": "à¦¾à¦¯à¦¼ à¦¬",
  "1441": "à§à¦° à¦¸à¦®",
  "1442": "à¦¾à¦­ à¦à¦°",
  "1443": "à¦°à§à¦à¦¨",
  "1444": "à§à¦°à§à¦¤",
  "1445": "¦à¦¿à¦",
  "1446": " à¦",
  "1447": "à§à¦°à§à¦",
  "1448": "à¦¸à¦¾à¦®",
  "1449": "à¦·à§à¦",
  "1450": "à¦¿à¦¤ à¦¸",
  "1451": "à§à¦¤à§à¦°",
  "1452": "à¦¾à¦° à¦",
  "1453": " à¦à¦¨à§à¦",
  "1454": " à¦ªà¦°à¦¿à¦¬à¦°à§à¦¤à¦¨",
  "1455": " à¦¨à¦¿à¦°à§à¦",
  "1456": "à¦° à¦ªà§à¦°",
  "1457": " à¦§à¦¾à¦°à¦£",
  "1458": "à¦¦à§à¦¦",
  "1459": "à§à¦à¦¿à¦²à§à¦¨",
  "1460": "à¦¾à¦ªà¦¾à¦¨",
  "1461": "à¦¶à¦¿à¦·à§à¦",
  "1462": "à¦­à§à¦¯à¦¤",
  "1463": " à¦®à¦¹à¦¾à¦¦à§à¦¶",
  "1464": "à§à¦®à¦£à§à¦¡à¦²",
  "1465": "à¦¤à§",
  "1466": "à¥¤ à¦¤à¦¬",
  "1467": " à¦²à¦à§à¦·",
  "1468": " à¦ªà¦¦",
  "1469": "à¦¾à¦à§à¦·",
  "1470": "à¥¤ ",
  "1471": "à¦§à¦¿à¦à¦¾à¦à¦¶",
  "1472": "à§ à¦à¦°",
  "1473": "à§à¦° à¦¨à¦¾à¦®",
  "1474": "à§à¦° à¦¸à¦à§à¦",
  "1475": "à¦¾à¦° à¦",
  "1476": "à¦ªà§à¦°à¦¿à¦¯à¦¼",
  "1477": "à§à¦¨à§à¦¦à§à¦° à¦",
  "1478": "°à¦¾à¦·à§à¦à§à¦°",
  "1479": "à§à¥¤ à¦¬",
  "1480": "à¦¾à¦§à¦¾à¦°à¦£à¦¤",
  "1481": "à§à¦¯à¦¾à¦ªà¦",
  "1482": "à§à¦° à¦®",
  "1483": "à§ à¦ªà¦°à¦¿à¦à¦¿à¦¤",
  "1484": "à¦¿ \n",
  "1485": " à¦à¦¯à¦¼",
  "1486": "à¦¦à¦¾à¦¯à¦¼",
  "1487": " à¦à¦à¦¨",
  "1488": "un",
  "1489": "à¦¬à¦¾à¦à¦²",
  "1490": " à§§à§ª",
  "1491": "à¦¿à¦§à¦¾à¦¨",
  "1492": " à¦¦à¦¿à¦¨",
  "1493": "à§à¦° à¦°à¦¾à¦",
  "1494": "à¦à¦¾à¦²à§à¦¨",
  "1495": "à¦à§à¦",
  "1496": "à§ à¦®à§",
  "1497": "à§à¦¬à¦¿à¦",
  "1498": "à¦à¦¿ à¦®",
  "1499": "à§ à¦ªà§à¦¥à¦¿à¦¬à§à¦° à¦",
  "1500": "à§ à¦ªà¦¡à¦¼",
  "1501": " à¦à¦¨à§à¦¨",
  "1502": "§à¦¾à¦°à¦£",
  "1503": "à¦°à§",
  "1504": " à¦¬à¦¿à¦­à¦¿à¦¨à§à¦¨",
  "1505": "à¦¾à¦¬à§à¦¯",
  "1506": "à¦¿à¦®à¦¾à¦£",
  "1507": "à¦¨à¦¾à¦®",
  "1508": "à¦¾ à¦¹à¦¯à¦¼à¥¤\n",
  "1509": "à¦¾à§",
  "1510": "al",
  "1511": "à¦¿)",
  "1512": "à¦®à§à¦­",
  "1513": "ion",
  "1514": "à§ à¦¬à¦¿à¦­à¦¿à¦¨à§à¦¨",
  "1515": "à§à¦¹",
  "1516": "à§à¦¤à§à¦¬",
  "1517": " à¦à¦£",
  "1518": "à¦¾à¦°à§à¦¯à¦",
  "1519": " à¦¸à¦°à¦",
  "1520": "à§à¦¬à¦¿à¦¤à§à¦¯à¦¼",
  "1521": " à¦ªà¦°à§à¦¬",
  "1522": "à¦¾à¦à¦",
  "1523": "à¦®à¦¨à§à¦¤à§à¦°à§",
  "1524": " â",
  "1525": "à¦¸à§à¦à§à¦°à§à¦²à¦¿à¦¯à¦¼",
  "1526": "à¦¾à¦° à¦",
  "1527": "à§â",
  "1528": "à§ à¦¤à¦¿à¦¨",
  "1529": "à¦ªà§à¦°",
  "1530": " à¦¸à§à¦¨",
  "1531": "à¦¿ à¦¤",
  "1532": "à§, à¦¬",
  "1533": "à§à¦¶à¦¿à¦¯à¦¼",
  "1534": "ic",
  "1535": "à§à¦° à¦ªà§à¦°à¦¥à¦®",
  "1536": "à¦¾à¦¤à§à¦¤",
  "1537": "à¦¤à§à¦°",
  "1538": " à¦¶à¦¹",
  "1539": "à¦¾à¦¹à¦¿à¦¨à§à¦° à¦",
  "1540": "à¦§à¦°à§à¦®",
  "1541": "à§§à§¦",
  "1542": "à§à¦à§à¦¸",
  "1543": "ee",
  "1544": "à¦¾à¦¨à§à¦",
  "1545": "à§à¦° à¦à¦¤à¦¿à¦¹à¦¾à¦¸",
  "1546": "à§à¦¬à¦°à§à¦ª",
  "1547": "à§ à¦",
  "1548": "à¦¾ à¦¹à¦¿à¦¸à§à¦¬",
  "1549": "à¦¾à¦«",
  "1550": "à¦¿ à¦¶",
  "1551": " à¦à¦¨à§à¦¸",
  "1552": " à¦°à¦¾à¦à¦¨à§à¦¤à¦¿à¦",
  "1553": "à¦",
  "1554": "à¦¬à¦¤",
  "1555": "à¦¿ à¦",
  "1556": "à¦¿à¦²à§à¦®",
  "1557": "à§¨à§¦à§§à§",
  "1558": "à¦¤à¦²",
  "1559": " à¦à¦¤à¦¿à¦¹à¦¾à¦¸",
  "1560": "à¦¬à¦¨à§à¦§",
  "1561": "à¦§à§à¦¯à¦¯à§à¦",
  "1562": "à¦¾à¦° à¦à¦¨",
  "1563": "à§ à¦¹à¦¯à¦¼",
  "1564": " à¦à¦¨à§à¦¯à¦¾à¦¯à¦¼à§",
  "1565": " à¦§à¦°à¦¨",
  "1566": "à¦¬à§à¦¯",
  "1567": " à¦¹à¦¾à¦",
  "1568": " \n \n",
  "1569": "à§ à¦¬à§à¦¶",
  "1570": ", à¦¹",
  "1571": "à§à¦¯à¦à§à¦¤",
  "1572": "à¦¾à¦à¦",
  "1573": " à¦à¦",
  "1574": "à§à¦¸à§à¦",
  "1575": " à¦à¦«à§à¦°à¦¿à¦",
  "1576": "à¦¨à§à¦¯à¦¾à¦¸",
  "1577": "à¦à¦²",
  "1578": " à¦à¦¨à¦¸à¦à¦à§à¦¯",
  "1579": "à¦¾à¦° à¦²",
  "1580": "à¦¾à¦à¦¸à§à¦à§à¦¤",
  "1581": "à¦¾à¦° à¦¸à¦¾à¦¥",
  "1582": "à¦¨à§à¦¤à§à¦° à¦",
  "1583": "à¦¾ à¦¸à¦¾à¦¹à¦¿à¦¤à§à¦¯",
  "1584": "à§à¥¤ à¦¤",
  "1585": "à¥¤ à¦à¦",
  "1586": " à¦¤à¦¾à¦¦",
  "1587": "à§à¦®à¦¾à¦¨",
  "1588": "à¦¶à¦¾à¦¸à¦¨",
  "1589": "à¦¬à¦¾à¦¯à¦¼à§",
  "1590": "à¦¾à¦¥à¦®",
  "1591": "à¦¿à¦·à§à¦",
  "1592": " à¦¸à¦à¦¸à¦¦",
  "1593": " à¦¬à¦°à§à¦",
  "1594": "à¦¾à¦°à§à¦¡",
  "1595": "à¦¿à¦¯à¦¼à¦¾à¦®",
  "1596": "à¦¿à¦«",
  "1597": "à¦¾à¦°à§à¦",
  "1598": "à§à¦°à§à¦¡à¦¼",
  "1599": "à§à¦°",
  "1600": " (à§§à§®",
  "1601": " -",
  "1602": "à¦¿à¦¬à¦¾à¦¸",
  "1603": "à§ à¦ªà§à¦°à¦¤",
  "1604": "à¦¾ à¦à¦",
  "1605": "à¦¾à¦° à¦«à¦²",
  "1606": " à¦¨à¦¯à¦¼",
  "1607": "à§ à¦à¦¨à§à¦",
  "1608": "à¦¸à§à¦à¦¾à¦°",
  "1609": "à§à¦®à§à¦¬",
  "1610": "à¦¸à¦¬à¦¾à¦¸",
  "1611": " à¦®à¦¾à¦¨",
  "1612": "à§à¦° à¦à¦§",
  "1613": "à¦®à§à¦ªà¦°à§à¦",
  "1614": " à¦¸à¦®à§à¦ªà¦°à§à¦",
  "1615": "es",
  "1616": "à¦¾à¦à¦",
  "1617": "à§à¦",
  "1618": "à§à¦·à¦®à¦¤",
  "1619": "à§à¦¤à§à¦¯",
  "1620": "à§à¦°",
  "1621": "à¦° à¦¥à§à¦",
  "1622": "à¦¿à¦°à§à¦®",
  "1623": " à¦à¦¾à¦°à¦£",
  "1624": " à¦°à¦",
  "1625": "à§à¦¸",
  "1626": "à¦¿à¦° à¦¬",
  "1627": " à¦¤à¦¾à¦°",
  "1628": "à¦¥à¦¬",
  "1629": "à¥¤ à¦­à¦¾à¦°à¦¤",
  "1630": "à§à¦¬à¦¾à¦¦",
  "1631": "à¦°à§à¦",
  "1632": " à¦¸à§à¦¬",
  "1633": "à§à¦·à§à¦¤à§à¦°",
  "1634": "à§à¦à§à¦²",
  "1635": " à¦¶à¦¿à¦à§à¦·",
  "1636": "of",
  "1637": "à¦¿à¦",
  "1638": "à§à¦ªà¦¤à§à¦¤",
  "1639": "à¦¾à¦®à¦²",
  "1640": "à¦®à¦¾à¦£",
  "1641": " à¦à¦®",
  "1642": "à¦¾à¦¯",
  "1643": " à¦à¦°à§à¦®",
  "1644": "à§à¦à§à¦²",
  "1645": "¦à¦¿à¦·à§à¦",
  "1646": "à¦¸à¦¨",
  "1647": "à¦¿à¦¸à§à¦¤à§à¦¤",
  "1648": "à¦¨à§à¦¤à§à¦°à¦£",
  "1649": "à¦¬à¦¨",
  "1650": " à¦à¦¨",
  "1651": "à§ à¦à¦à¦°à§à¦ª",
  "1652": "à§à¦¨à¦¿à¦¸",
  "1653": " à¦¦à§à¦",
  "1654": "à§à¦° à¦à¦à¦à¦¿ à¦",
  "1655": "à¦®à§à¦¹",
  "1656": " à¦à¦",
  "1657": " à¦ªà¦¾à¦²",
  "1658": "à§)",
  "1659": "of ",
  "1660": " à¦¡à¦²",
  "1661": " à¦¨à¦¿à¦°à§à¦¬à¦¾à¦à¦¨",
  "1662": " à¦¬à§à¦¯à¦¬à¦¸à§à¦¥",
  "1663": "à¦à§à¦",
  "1664": "à¦¨à¦¿à¦¬à§à¦¶",
  "1665": " à¦¹à¦à§à¦",
  "1666": " à¦à¦²à§à¦",
  "1667": "à§ à¦¸à¦°à§à¦¬",
  "1668": " à¦®à¦§à§à¦¯",
  "1669": "à¥¤ à¦",
  "1670": "à§ à¦à¦¸",
  "1671": " à¦°à§à¦ª",
  "1672": " à§§à§¯à§¯à§",
  "1673": "à§à¦ªà¦¾à¦§",
  "1674": "à¦¡à¦¼à¦¿à¦¯à¦¼",
  "1675": "à¦¾à¦° à¦à¦ª",
  "1676": "à§à¦¡à¦¼",
  "1677": "à¦¾à¦°à¦",
  "1678": "à§ à¦¶à§à¦°à§",
  "1679": "à¦¦à¦¿à¦",
  "1680": " à¦à¦°à§à¦¤à§",
  "1681": "à¦¿à¦à¦¤",
  "1682": " à¦®à¦¾à¦°à§à¦à¦¿à¦¨",
  "1683": "à¦à§à¦°à¦®",
  "1684": " à¦¯à§à¦¦à§à¦§",
  "1685": "à¦¾à¦¯à¦¼à¦¿à¦¤à§à¦¬",
  "1686": "%)",
  "1687": "à¦¿à¦¶à¦¨",
  "1688": "à§à¦¬à§",
  "1689": "à¦¾à¦à§à¦¤",
  "1690": "à¥¤ à¦à¦à¦¾à¦¡à¦¼à¦¾à¦",
  "1691": "à¦¿à¦°à§à¦­",
  "1692": "à§à¦à§à¦¨",
  "1693": "à¦à¦¿ à¦",
  "1694": "-à¦®",
  "1695": "à¦¯à§à¦à§à¦¤ à¦",
  "1696": "à¦° à¦¤",
  "1697": "à¦° à¦¹",
  "1698": "à¦¿à¦®à§à¦¨",
  "1699": "à¦ªà§à¦¤",
  "1700": "à§à¦¤à¦°à§à¦­",
  "1701": " à¦à¦¿à¦²à§à¦®",
  "1702": "à¦¾à¦¯à¦¼à¦¨",
  "1703": "à¦¾ à¦",
  "1704": " à¦à¦¬à¦ à¦¸",
  "1705": "à¦°à¦¾à¦",
  "1706": "à§ à¦¦à§à¦¶",
  "1707": "à¦ªà¦à§à¦·",
  "1708": "à§à¦°à¦¾à¦¨",
  "1709": "à¦à¦²à¦¾à¦¨à§à¦",
  "1710": "à¦¾à¦²à¦¦à§à¦¬à§à¦ª",
  "1711": "à¦¿à¦° à¦ªà§à¦°",
  "1712": " à¦¦à§à¦¬à§à¦ªà¦ªà§à¦à§à¦",
  "1713": "à§à¥¤ à¦¸",
  "1714": "à§à¦¦à§à¦§",
  "1715": "à§à¦ªà¦¾à¦§à§à¦¯à¦¾à¦¯à¦¼",
  "1716": "§à¦°",
  "1717": " à¦¨à¦¾",
  "1718": "à§ â",
  "1719": "à§ à¦",
  "1720": "à¦à¦¨",
  "1721": "à§à¦°à§à¦£",
  "1722": "à¦¿ (",
  "1723": "à§à¦£",
  "1724": "à§à¦°à¦¾à¦¸",
  "1725": " à¦¬à¦¿à¦·à¦¯à¦¼",
  "1726": "à¦à§à¦¸",
  "1727": ", à¦",
  "1728": "à¦°à§à¦¯à¦¾à¦¯à¦¼",
  "1729": "à¥¤ à¦¦",
  "1730": "à¦¾à¦¯à¦¼à§",
  "1731": " à¦à¦°à§à¦¨à¥¤ à¦",
  "1732": " à¦¸à§à¦",
  "1733": "à§à¦",
  "1734": "à§à¦­",
  "1735": "à¦¿à¦à§",
  "1736": "à§ à¦ªà§à¦°à§à¦¬",
  "1737": "à§à¦°à¦¿à¦¯à¦¼",
  "1738": "à§à¦·à§à¦£",
  "1739": "à¦¾ à¦­",
  "1740": "à¦°à§à¦¦",
  "1741": "à¦¦à§à¦¯",
  "1742": "à¦¾à¦° à¦à¦¬à¦",
  "1743": "à¦¾à¦°à§à¦§",
  "1744": "à¦¸à§à¦¬",
  "1745": "à¦¾à¦¯à¦¼à¦",
  "1746": "à¦à¦¿ à¦ª",
  "1747": "à¦° à¦",
  "1748": " à¦¬à¦¿à¦²à¦¿à¦¯à¦¼à¦¨",
  "1749": " à¦¬à¦¿à¦¶à§à¦¬à¦¬à¦¿à¦¦à§à¦¯à¦¾à¦²à¦¯à¦¼",
  "1750": "¯à¦¨à§à¦¤",
  "1751": "à§ à¦¶à§à¦ à¦®à§à¦à¦¿à¦¬",
  "1752": " à¦¶à§à¦ à¦®à§à¦à¦¿à¦¬",
  "1753": ", à¦ªà§à¦°",
  "1754": "à§à¦à¦¬à¦²",
  "1755": "à§ à¦à§à¦²",
  "1756": ": ",
  "1757": " à¦ªà¦°à¦¿à¦¬à§à¦¶",
  "1758": "à¦à¦²à¦¾à¦¨à§à¦à¦¿à¦",
  "1759": "à¦¾à¦¯à¦¼à§à¦®à¦£à§à¦¡à¦²",
  "1760": "à§à¦°à¦¹",
  "1761": "à¥¤ à¦¬à¦¾à¦à¦²à¦¾à¦¦à§à¦¶",
  "1762": "à¦¾ à¦¸à¦",
  "1763": "à¦¸à§à¦¬à¦°à§à¦ª",
  "1764": "à¦¿à¦° à¦",
  "1765": " à¦¹à¦¨",
  "1766": "à¦¬à¦¿à¦§à¦¾à¦¨",
  "1767": " à¦à¦²",
  "1768": "¯à¦¥",
  "1769": "à¦²à¦",
  "1770": "à¦°à§à¦¤",
  "1771": " à¦­à¦¾à¦·à¦¾à¦¯à¦¼",
  "1772": " à¦¹à¦¯à¦¼à¥¤\n",
  "1773": "à¦¸à¦¹",
  "1774": "à¦¶à§à¦²",
  "1775": "y ",
  "1776": "à¦¿à¦°à§à¦¦à§à¦§",
  "1777": "à¦¤à¦¿à¦¹à¦¾à¦¸à¦¿à¦",
  "1778": "à§à¦¤à§à¦¤à§à¦¬",
  "1779": "à¦¦à¦²",
  "1780": "à¦ªà¦¤",
  "1781": "à¦à§à¦à¦à§à¦°à¦¾à¦®",
  "1782": " '",
  "1783": " à¦¶à¦à§à¦¤",
  "1784": "à¦¾à¦£à§",
  "1785": "à¦¾à¦¨à§à¦¯à¦¼à¦¾à¦°",
  "1786": " à¦ªà¦¾à¦¨",
  "1787": "sty",
  "1788": "style",
  "1789": "style=",
  "1790": ", à¦«",
  "1791": "à¦ à¦¿à¦¤ à¦¹à¦¯à¦¼",
  "1792": "à¦¾à¦£à§à¦¡",
  "1793": " à¦®à¦¨",
  "1794": "à§à¦à§à¦",
  "1795": "à¦° à¦à¦°",
  "1796": " à¦¶à¦¾à¦¸à¦¨",
  "1797": "à§ à¦¨à¦¿à¦¯à¦¼",
  "1798": "à¦¦à§à¦° à¦®à¦§à§à¦¯",
  "1799": "und",
  "1800": "à§à¦ªà§à¦¨",
  "1801": "à¦à¦à¦°à§à¦ª",
  "1802": "à¦¨à§à¦",
  "1803": "à¦¾à¦¦à¦¾à¦¨",
  "1804": " à¦à¦¡à¦¼",
  "1805": "à§ à¦à¦ ",
  "1806": "à¦°à§à¦¤à§à¦",
  "1807": "à§ à¦à¦ª",
  "1808": "à¦¿à¦¸à¦",
  "1809": "°à¦¯à¦¼à§à¦",
  "1810": "à§à¦° à¦à¦¾à¦",
  "1811": " à¦à§à¦·à§à¦¤à§à¦°",
  "1812": "à¥¤ à¦¨",
  "1813": "à§ à¦¸à¦¾à¦®",
  "1814": "à¦¿à¦à§à¦",
  "1815": "ol",
  "1816": "à§§ à¦¸à¦¾à¦²",
  "1817": "à¦°à§à¦¥à¦¨à§à¦¤à¦¿à¦",
  "1818": "à¦§à¦¾à¦¨à§",
  "1819": "à¦° à¦à¦",
  "1820": "à§à¦° à¦à¦¾à¦°à¦£",
  "1821": "à¦­à¦¿à¦¯",
  "1822": "à¦®à¦¾à¦¤à§à¦°",
  "1823": "à¦à§à¦",
  "1824": "à§à¦«",
  "1825": "à¦¿à¦",
  "1826": "à¦¦à¦¿à¦¨",
  "1827": "à¦¾ à¦®à¦¹à¦¾à¦¦à§à¦¶",
  "1828": "à§ à§¨",
  "1829": "à¦¾à¦¬à¦¾à¦¦",
  "1830": " à¦à¦à¦¨",
  "1831": "à§à¦²à¦",
  "1832": " à¦­à¦¾à¦",
  "1833": " à¦ªà§à¦°à¦­à¦¾à¦¬",
  "1834": "à¦¸à¦®à¦¯à¦¼",
  "1835": "à¦°à¦¤",
  "1836": " à¦¸à¦à¦à§à¦¯",
  "1837": " à¦à¦¬à¦ à¦¤",
  "1838": "à¦¾ à¦°à¦¯à¦¼à§à¦",
  "1839": "à¦ à¦¨ à¦à¦°",
  "1840": "à§ à¦¬à¦¿à¦­",
  "1841": "-à¦ªà§à¦°à§à¦¬",
  "1842": "à¥¤ à¦",
  "1843": "à§à¦",
  "1844": "\n                ",
  "1845": "à§ à¦à¦ ",
  "1846": "à§à¦¦à§à¦°à¦¿à¦",
  "1847": "à¦¨à§à¦¦à§à¦° à¦",
  "1848": ".à§«",
  "1849": "à§à¦¯à¦¾à¦à¦",
  "1850": " à¦¶à§à¦°à§",
  "1851": "à§à¦ªà§à¦°à¦¦à¦¾à¦¯à¦¼",
  "1852": " à¦à¦°",
  "1853": " à¦¹à¦¾à¦¸à¦¿à¦¨",
  "1854": " à¦¬à¦¿à¦¦",
  "1855": "à¦¿à¦à¦",
  "1856": "à§à¦§",
  "1857": "à§à¦·à¦£",
  "1858": " à¦ªà¦°à¦¿à¦·",
  "1859": " (à§§à§",
  "1860": "à§à¦¤ à¦",
  "1861": "gro",
  "1862": "à§à¦¬à¦",
  "1863": "à¦¾à¦°à§à¦à¦à¦¿à¦",
  "1864": "bac",
  "1865": "à¦¾, à¦¬",
  "1866": "à¦®à¦¾à¦¤à§à¦° à¦",
  "1867": "à¦à¦£à§à¦¡",
  "1868": "à¦¿à¦à¦¾à¦¶",
  "1869": " à¦à¦à§à¦",
  "1870": "à§à¦¬à§à¦à§à¦¤",
  "1871": ", à¦­",
  "1872": "à¦¾ à¦à¦¿à¦²",
  "1873": "à¦¾à¦à¦°",
  "1874": "à¥¤ \n",
  "1875": "à¦¾à¦¶à¦¾à¦ª",
  "1876": "à¦¾à¦¶à¦¾à¦ªà¦¾à¦¶",
  "1877": "à§à¦¤à¦°",
  "1878": "à§à¦®à¦¾à¦¨",
  "1879": " à¦°à¦¾à¦",
  "1880": "-à¦",
  "1881": " à¦¸à¦®à¦¾à¦",
  "1882": "à¦ªà¦¤à¦¿ à¦",
  "1883": "à¦¿à¦°à¦à§à¦·",
  "1884": "à§à¦° à¦²",
  "1885": "à¦¿à¦¬à§à¦",
  "1886": "§à¦¾à¦°",
  "1887": "à¦¿à¦°à¦­à¦¾à¦",
  "1888": "à¦¿à¦¹à§à¦¨",
  "1889": "à§à¦¤à§",
  "1890": "à§ à¦à¦¨",
  "1891": "à§ à¦à¦¬à¦¸à§à¦¥à¦¿à¦¤",
  "1892": "à¦¿à¦¦à§à¦§",
  "1893": "à§à¦ à¦¹à¦¾à¦¸à¦¿à¦¨",
  "1894": " à¦à¦¯à¦¼",
  "1895": "à§, à¦¤",
  "1896": "à§à¦²à¦¨à¦¾à¦¯à¦¼",
  "1897": " à¦¸à¦¬",
  "1898": "à§ à¦¤à¦¿à¦¨à¦¿ à¦",
  "1899": "à¦à¦¤à§à¦¤à¦° à¦",
  "1900": "à¦¿à¦° à¦®à¦§à§à¦¯",
  "1901": "à¦¿à¦¥",
  "1902": "à¦¾à¦°à§à¦¶",
  "1903": " style=",
  "1904": " style=\"",
  "1905": " style=\"bac",
  "1906": " style=\"back",
  "1907": " style=\"backgro",
  "1908": " style=\"background",
  "1909": " style=\"background:",
  "1910": ";\"",
  "1911": ";\"|",
  "1912": "à¦¾ à¦",
  "1913": "à§­ à¦¸à¦¾à¦²",
  "1914": "à§à¦° à¦­à¦¾à¦·",
  "1915": "à§ à¦¡",
  "1916": "à¦®à¦¹à¦¾à¦¦à§à¦¶",
  "1917": "à¦¸à§à¦¥à¦¾à¦¨",
  "1918": "à¦²à§à¦",
  "1919": "à¦¿à¥¤\n",
  "1920": " à¦à¦°à§à¥¤\n",
  "1921": "à§à¦° à¦ªà§à¦°à¦¤",
  "1922": " à¦¹à¦à¦¯à¦¼",
  "1923": "à¦¾à¦à¦¸à§à¦à§à¦¤à¦¿à¦",
  "1924": "à§à¦à¦¨",
  "1925": "à¦¾ à¦¥à¦¾à¦",
  "1926": " à§§à§§",
  "1927": " à¦®à§à¦¸à¦²à¦¿à¦®",
  "1928": "à¦­à¦¯à¦¼",
  "1929": " à¦ à¦ªà§à¦°",
  "1930": "à§à¦",
  "1931": "à¦¨à§à¦¦à¦°",
  "1932": "à§ à¦à¦¿à¦²",
  "1933": " à¦à§à¦·à¦®à¦¤",
  "1934": " à¦®à¦¾à¦¸",
  "1935": "à¦¾à¦ªà¦®à¦¾à¦¤à§à¦°",
  "1936": "à¦¿ à¦¬à¦¿à¦¶à§à¦¬",
  "1937": "à§ à¦¦à§à¦",
  "1938": "à§à¦°à¦¾à¦¨à§à¦¸",
  "1939": "à¦¶à¦¿à¦·à§à¦à§à¦¯",
  "1940": "à¦¿à¦ªà¦à§à¦·",
  "1941": " à¦à¦­",
  "1942": "à¦à§à¦·à§à¦ ",
  "1943": " à¦à¦¾à¦¨",
  "1944": "à¥¤ à¦¯",
  "1945": "â",
  "1946": "à¦¹à§",
  "1947": " à¦­à¦¾à¦°à¦¤à§à¦¯à¦¼",
  "1948": "à§à¦²",
  "1949": "à¦à§à¦°à¦¿à¦¯à¦¼",
  "1950": " à¦¸à¦à¦¸à§à¦¥",
  "1951": "à§à¦à¦¿ à¦",
  "1952": "à¦¾à¦ªà§à¦¤",
  "1953": " à¦¹à¦¯à¦¼à§à¦à¦¿à¦²",
  "1954": "à§ à¦",
  "1955": "à¦¾à¦°à§à¦²",
  "1956": "à¦¿à¦ªà¦°à§à¦¤",
  "1957": "à¦à¦¶à¦¿à¦¯à¦¼",
  "1958": "à¦° à¦¶",
  "1959": "à¦°à¦¾à¦¬",
  "1960": "à§à¦° à¦¸",
  "1961": "à§à¦¤",
  "1962": " à¦à§à¦¨",
  "1963": " à¦à¦¹",
  "1964": "à¦¾ à¦à¦ª",
  "1965": "à¦¥à§à¦¯à¦¸",
  "1966": " à¦à¦°à§à¦¥à¦¨à§à¦¤à¦¿à¦",
  "1967": "à¦¾à¦¯à¦¼à¦¤",
  "1968": "à§à¦¯à§à¦¤",
  "1969": "à¦¾à¦°à§à¦¯à¦",
  "1970": "à¦°à§à¦",
  "1971": "à§ à¦à¦¬",
  "1972": "à§ à¦",
  "1973": " à¦¸à§à¦¥à¦¾à¦ª",
  "1974": " à§©à§¦",
  "1975": "à¦°à§à¦ª",
  "1976": "à¦ªà¦¾à¦¤",
  "1977": "Â°",
  "1978": "à¦¿-",
  "1979": " à¦à§à¦¬à¦¨",
  "1980": " à§§à§©",
  "1981": "à¦¿à¦¶à¦¾à¦²",
  "1982": "à§à¦° à¦¶à§à¦·",
  "1983": "à§à¦° à¦®à¦¤à§",
  "1984": "à§, à¦",
  "1985": "à¦¾ à¦¨à¦¿à¦¯à¦¼",
  "1986": "à¦¦à¦à§à¦·à¦¿à¦£",
  "1987": "à§à¦¯à¦ª",
  "1988": " à¦à¦à§à¦·",
  "1989": "à¦¾à¦¯à§à¦",
  "1990": "à¦¤à¦¾à¦¨à§à¦¤",
  "1991": "à¦à¦°",
  "1992": " à¦¤à§à¦°",
  "1993": "à§à¦¦à§à¦§à¦¿ à¦ª",
  "1994": "à§à¦° à¦à¦¨",
  "1995": "à§à¦°à¦¿à¦¸à§à¦",
  "1996": "à§ à¦¦à¦à§à¦·à¦¿à¦£",
  "1997": "à¦¢à¦¾à¦",
  "1998": "à§à¦°à§à¦",
  "1999": " à¦ªà§à¦°à¦£",
  "2000": "à¦¾à¦à¦¿à¦",
  "2001": " à¦ªà§à¦°à¦à¦¾à¦¤",
  "2002": "à¦¿à¦®à¦¾à¦¨",
  "2003": " à¦à¦¬",
  "2004": "à¦¯à§à¦¦à§à¦§",
  "2005": "à§à¦°à¦¾à¦",
  "2006": "à¦à¦¨à¦",
  "2007": " S",
  "2008": "à§ à¦à¦¤à§à¦¤à¦° à¦",
  "2009": "à§à¦¤à§à¦¬à¦",
  "2010": "à¦à¦¿à¦®",
  "2011": "à¦²à§",
  "2012": "à¦¨à§à¦¯à¦¾à¦¨à§à¦¯",
  "2013": "à¦¾à¥¤\n",
  "2014": "à¦¿à¦à¦¶ à¦¶à¦¤à¦¾à¦¬à§à¦¦",
  "2015": "à§à¦à¦¯à¦¼à¦¾ à¦¹à¦¯à¦¼",
  "2016": "à¦ªà§à¦à§à¦·",
  "2017": "à¦¿à¦¤ à¦",
  "2018": "¦à¦à§à¦·à¦¿à¦£",
  "2019": "à¦·à§à¦®",
  "2020": " à¦¨à¦¿à¦",
  "2021": " à¦à¦¨à§à¦¸à¦¾à¦°",
  "2022": " à¦à¦¾à¦°",
  "2023": "à§à¦° à¦®à¦¤",
  "2024": "à¦¡à¦¼à¦",
  "2025": " à¦¦à¦¾à¦¬",
  "2026": "à§à¦° à¦à¦§à§à¦¨",
  "2027": "à¦¿à¦£à¦¤",
  "2028": "à¦¾à¦°à§à¦¶à¦¨",
  "2029": " (à¦¬",
  "2030": " à¦à¦¤à§à¦¤à¦°",
  "2031": " à¦¸à¦®à§à¦¦à§à¦°",
  "2032": "à¦¤à¦¿à¦à§à¦°à¦®",
  "2033": "à¦¾à¦° à¦®à¦¾à¦§à§à¦¯à¦®",
  "2034": "à§ à¦°à¦¾à¦",
  "2035": " à§§à§¯à§®",
  "2036": "à¦¾à¦à¦¬",
  "2037": "à§à¦",
  "2038": " à¦à§à¦°à¦¿à¦¸à§à¦à¦¾à¦¬à§à¦¦",
  "2039": "à§à¦¯à¦¾à¦à¦¸à¦®",
  "2040": "à§à¦¯à¦¾à¦à¦¸à¦®à§à¦¯à¦¾à¦¨",
  "2041": "à¦¾à¦à¦¡",
  "2042": " à¦à§à¦²",
  "2043": "à§ à¦à¦à§à¦à¦à§à¦°à¦¾à¦®",
  "2044": "®à¦¹à¦¾à¦¸à¦¾à¦",
  "2045": "\n!",
  "2046": "à¦¾à¦°à§à¦¥à¦",
  "2047": " à¦ªà§à¦°à¦¾à¦à§à¦¨",
  "2048": " à¦à¦¤à§à¦¯à¦¾à¦¦",
  "2049": " à¦à¦°à¦¾ à¦¯à¦¾à¦¯à¦¼",
  "2050": "à¦¾à¦¸à¦®à§à¦¹",
  "2051": "à¦¦à¦¾à¦¹",
  "2052": " à¦à¦¾à¦²",
  "2053": " à¦à¦à¦°à§à¦",
  "2054": " à¦à§à¦²",
  "2055": "à§à¦à§à¦²à¦¿à¦",
  "2056": "à§à¦° à¦à¦¨à§à¦¯à¦¤à¦®",
  "2057": "à¦¾ à¦¸à¦®",
  "2058": "à¦¾à¦° à¦à¦",
  "2059": "­à¦¾à¦",
  "2060": "à§à¦° à¦¬à§à¦¶",
  "2061": "à¦¬à¦£",
  "2062": "à¦¯à§à¦à§à¦¤",
  "2063": " à¦à¦­",
  "2064": "à¦¨à§à¦¦à§à¦°",
  "2065": " à¦à¦¾à¦à¦¦",
  "2066": "à¦¥à§à¦¯à¦¸à§à¦¤à§à¦°",
  "2067": "à¦¸à¦à¦¯à§à¦",
  "2068": "à§à¦¤à¦°à§à¦­à§à¦à§à¦¤ à¦",
  "2069": "à¦¾à¦¨à§à¦¡",
  "2070": "à¦¦à§à¦°",
  "2071": "à¦­à¦¿à¦¯à¦¾à¦¨",
  "2072": "à¦¾à¦° à¦¤",
  "2073": "à¦° à¦",
  "2074": "à¦°à¦¾à¦¯à¦¼",
  "2075": "à¦°à§à¦",
  "2076": " à¦à¦¨à§à¦¤à¦°à§à¦à¦¾à¦¤à¦¿à¦",
  "2077": "à§« à¦¸à¦¾à¦²",
  "2078": "à¦¨à§à¦",
  "2079": "à¦ à¦®",
  "2080": " à¦²à§à¦",
  "2081": " à¦ à¦®",
  "2082": "à§à¦¯à¦",
  "2083": "à§à¦·à¦£à¦¾ à¦à¦°",
  "2084": "à¦¬",
  "2085": " à¦¬à¦²à¦¾ à¦¹à¦¯à¦¼",
  "2086": "à§à¦à§",
  "2087": "à¦¸à§à¦¤ à¦",
  "2088": "à¦¾à¦° à¦",
  "2089": " à¦¸à§à¦·à§à¦",
  "2090": "à¦¿ à¦²",
  "2091": " à§§à§¯à§¬",
  "2092": "à¦¾à¦¬à¦¨",
  "2093": "à§à¦¹à§",
  "2094": "à¦¿ à¦",
  "2095": "à¦¾à¦¤à§à¦®",
  "2096": " à¦¥à§à¦à§ à¦¬",
  "2097": "à¦à¦¯à¦¼",
  "2098": "à¦¾à¦à§à¦",
  "2099": " à¦¶à¦¿à¦²à§à¦ª",
  "2100": "à¦°à§à¦¥à¦¨à§à¦¤",
  "2101": "à§à¦",
  "2102": " à¦à¦¸à¦²à¦¾à¦®",
  "2103": "à¦¾à¦° à¦ªà§à¦°à¦¥à¦®",
  "2104": "à¦¾à¦¥à¦®à¦¿à¦",
  "2105": "à¦®à§à¦ªà¦¾à¦¨",
  "2106": " à¦¨à§à¦¤",
  "2107": "à¦¿à¦à¦¾à¦°",
  "2108": "à§à¦¡à¦¼",
  "2109": "à§à¦¯à¦¾à¦",
  "2110": " à§¨à§«",
  "2111": "à¦¾à¦° à¦à¦¾à¦°à¦£",
  "2112": "à¦¿à¦à§à¦°",
  "2113": "à§® à¦¸à¦¾à¦²",
  "2114": "à¦¬à¦¨à§à¦§à§",
  "2115": "the ",
  "2116": "à§à¦¯à¦¾à¦¨à§à¦à¦¾à¦°à§à¦à¦à¦¿à¦",
  "2117": "à§à¦à§à¦¸à¦¿à¦à§",
  "2118": "à¦¾à¦¨à§à¦¯",
  "2119": "à§à¦¥à¦",
  "2120": "à¦¾à¦¯à§à¦¯",
  "2121": " à¦à¦à¦",
  "2122": " à¦ à¦¤",
  "2123": ", à¦¬à¦¾à¦à¦²à¦¾à¦¦à§à¦¶",
  "2124": "à¦¾)",
  "2125": "à§à¦°à§à¦",
  "2126": "à¦¿ à¦",
  "2127": "à§ à¦à¦²",
  "2128": " à¦¸à§à¦à§à¦²",
  "2129": "à¦à¦",
  "2130": "à¦¿à¥¤ à¦",
  "2131": "à¦¦à§à¦§à¦¤",
  "2132": "à¦¿à¦°à§à¦¦à¦¿à¦·à§à¦",
  "2133": "à§ à¦à§à¦¨",
  "2134": ". ",
  "2135": "à¦à¦",
  "2136": " à¦à§à¦¡à¦¼",
  "2137": "à§à¦¯à¦¾à¦¤ à¦",
  "2138": "à¦à¦°à§à¦ªà§à¦¯à¦¼",
  "2139": "à§à¦¨à§à¦¸",
  "2140": "à§ à¦à¦²",
  "2141": "à§à¦¯à¦¼ à¦ª",
  "2142": " à¦¸à¦®à§à¦­",
  "2143": "à¦° à¦à¦¬à¦",
  "2144": "à¦¾à¦ªà§à¦¤ à¦",
  "2145": "à¦¸à¦¾à¦°",
  "2146": " à¦¯à§à¦à§à¦¤à¦°à¦¾à¦·à§à¦à§à¦°",
  "2147": "à¥¤\nà¦¬",
  "2148": "à¦à§à¦¨",
  "2149": " à¦à¦¾à¦¨à¦¾à¦¡",
  "2150": "à§à¦",
  "2151": "à¦¤à¦¥à§à¦¯à¦¸à§à¦¤à§à¦°",
  "2152": "it",
  "2153": "à§à¦«",
  "2154": "!!",
  "2155": "à¦¸à¦¾à¦à¦°",
  "2156": "à§à¦¬à§à¦°",
  "2157": "à¦¿à¦¤ à¦¨",
  "2158": " à¦¸à¦°à§à¦¬",
  "2159": ", à¦à¦¿à¦¨à§à¦¤à§",
  "2160": "à¦¾à¦à§à¦²",
  "2161": "à¦¤à¦¨à§à¦¤à§à¦° à¦",
  "2162": "à¦¦à¦¾à¦¹à¦°à¦£",
  "2163": "à¦¤à¦¾à¦¨",
  "2164": " à¦à¦¨",
  "2165": "à¦¾à¦¹à¦¾à¦¯à§à¦¯",
  "2166": "à¦à¦°",
  "2167": " à¦­à¦¾à¦¬",
  "2168": "à¦à§à¦à¦²",
  "2169": " à¦à¦¬à¦ à¦®",
  "2170": "à§ à¦¦à§à¦¯à¦¼",
  "2171": " à¦¡à¦²à¦¾à¦°",
  "2172": "à§à¦¤à§à¦¯à¦¼",
  "2173": "à¦¾à¦à§à¦²à§",
  "2174": "à§¯ à¦¸à¦¾à¦²",
  "2175": "à¦°à¦®",
  "2176": "à¦¾à¦¨ à¦à¦°",
  "2177": "à¥¤ à¦",
  "2178": "à§à¦¥à¦¿à¦¬à§à¦¤",
  "2179": " à¦à¦à¦¯à¦¼à¦¾à¦®à§ à¦²à§à¦",
  "2180": "à¦¬à¦¾à¦°",
  "2181": "à¦¾à¦¸à§à¦",
  "2182": "re",
  "2183": " à¦¸à¦­à§à¦¯à¦¤",
  "2184": "à¦®à¦£à§à¦¡à¦²",
  "2185": "à¦¾à¦° à¦¨à¦¾à¦®",
  "2186": " à¦¬à¦°à¦«",
  "2187": "à¦ªà§à¦¥à¦¿à¦¬à§à¦° à¦",
  "2188": " à¦¸à§à¦°à§à¦¤",
  "2189": "à¦¾à¦à§à¦¯",
  "2190": "à§à¦¬à§à¦°à§à¦¯à¦¼à¦¾à¦°",
  "2191": "à¦¾ à¦¬à¦¿à¦¶à§à¦¬à¦¬à¦¿à¦¦à§à¦¯à¦¾à¦²à¦¯à¦¼",
  "2192": "à§à¦¤à§ à¦ªà¦¾à¦°",
  "2193": "à¥¤\nà¦",
  "2194": " à¦à¦¸",
  "2195": " à¦°à¦¾à¦·à§à¦à§à¦° à¦",
  "2196": "à§à¦à¦¾à¦²à§à¦¨",
  "2197": "à§ à¦®à¦¾à¦¨à§à¦·",
  "2198": "à§à¦à¦¨",
  "2199": "à¦¿ à¦",
  "2200": "à§ à¦ªà§à¦°à¦¥à¦®",
  "2201": " à¦à¦ªà¦à§à¦²",
  "2202": " à¦à§à¦à¦¿",
  "2203": "à¦¿à¦¡à¦¿à¦ª",
  "2204": " à§§à§¯à§ª",
  "2205": " à¦¹à¦¬",
  "2206": "à§à¦° à¦¤à¦¾à¦²à¦¿à¦",
  "2207": "à§à¦° à¦°",
  "2208": " à¦à¦à¦¨",
  "2209": "à¦­à§à¦¤",
  "2210": " à¦¸à¦®à§à¦ªà¦¦",
  "2211": "à¦à¦¸",
  "2212": " à¦¦à§à¦¯à¦¼",
  "2213": "à§¦ à¦¸à¦¾à¦²",
  "2214": "à¦¤à§à¦°à§à¦¥",
  "2215": "à¦¿à¦¤ à¦à¦°à¦¾ à¦¹à¦¯à¦¼",
  "2216": "à§à¦¯à¦¦à¦¿à¦",
  "2217": "à¦¿à¦à¦¯à¦¼à§",
  "2218": "à¦°à§à¦ªà§à¦°",
  "2219": "à¦¾, à¦®",
  "2220": "à¦¯à¦¼à¦¸",
  "2221": "à§à¦¯à¦¾à¦®à§à¦ª",
  "2222": "à§à¥¤ à¦ª",
  "2223": "¯à§à¦à§à¦¤à¦°à¦¾à¦·à§à¦à§à¦° à¦",
  "2224": "à¦¾à¦ à¦¾à¦®",
  "2225": " à¦®à¦¤",
  "2226": "à§à¦®à§à¦¬à¦°",
  "2227": "à§à¦²à¦¿à¦¶",
  "2228": "¨à¦¾à¦®",
  "2229": "as",
  "2230": "à¦²à¦¿à¦",
  "2231": "-)\n",
  "2232": "à§à¦à§à¦°",
  "2233": "à§ à¦à¦¾à¦à¦¦",
  "2234": "à¦¾, à¦",
  "2235": "à¦à§à¦à§à¦¤",
  "2236": " à¦¬à¦à¦° à¦ª",
  "2237": " à¦²à¦¿à¦",
  "2238": "à¦à§à¦·à§à¦¯",
  "2239": "à§à¦° à¦ªà§à¦°à§à¦¬",
  "2240": "à§à¦¯à¦¨",
  "2241": "à¦¿à¦¬à¦°à§à¦¤",
  "2242": "à§à¦¸à¦²à¦¿à¦®",
  "2243": "à¦à§à¦·à¦£",
  "2244": " à¦à¦¦",
  "2245": "à¦°à§à¦ª",
  "2246": "à§à¦¯à¦¬à¦¹à§à¦¤ à¦¹à¦¯à¦¼",
  "2247": "à§ à¦ªà¦¾à¦à¦¿à¦¸à§à¦¤à¦¾à¦¨",
  "2248": "à§ à¦¨",
  "2249": " à¦à¦¾à¦¡à¦¼",
  "2250": "à¦° à¦¸à¦¾à¦¥",
  "2251": "à¦¤à§à¦¤à§à¦¬à§à¦",
  "2252": " à¦ªà§à¦°à¦à¦¾à¦¶",
  "2253": "à¦®à§à¦",
  "2254": "à¦¾à¦¨à§à¦¤à¦°",
  "2255": "à¦¿ à¦¹à¦²",
  "2256": "à§ à¦¤à¦¾à¦",
  "2257": "    \n                ",
  "2258": "à§à¦ªà¦¾à¦¦",
  "2259": "à¦¤à¦¾à¦¨à§à¦¤à§à¦°à¦¿à¦",
  "2260": "à¦¨ à¦à¦°à¦¾ à¦¹à¦¯à¦¼",
  "2261": "à¦¾à¦°à§à¦·",
  "2262": "à¦à§ à¦¬",
  "2263": " à¦¥à§à¦à§à¦",
  "2264": "à¦à¦°",
  "2265": "à¦à¦²",
  "2266": "à¦¬à¦°à§à¦¤à§à¦à¦¾à¦²",
  "2267": "à§à¦¨à¥¤ à¦",
  "2268": " à¦à§à¦°à¦¹à¦£ à¦à¦°",
  "2269": "à¦° à¦",
  "2270": "à§à¦¦",
  "2271": "à¦¸à¦­",
  "2272": "à¦¾à¦²à¦¨",
  "2273": "à¦¾à¦°à§à¦¯",
  "2274": "à¦¾à¦à§à¦",
  "2275": ", à¦²",
  "2276": "à¦¾à¦¶à¦¿à¦¯à¦¼",
  "2277": "à§à¦² à¦¹",
  "2278": "à¦à¦",
  "2279": "00",
  "2280": " à¦ªà§à¦°à¦¸à§à¦à¦¾à¦°",
  "2281": "à§à¦­à¦¿à¦¯à¦¼",
  "2282": " à¦­à§à¦®à¦¿à¦",
  "2283": "à§ à¦¨à¦¿à¦",
  "2284": "-à§§à§",
  "2285": "à§ \"",
  "2286": "à¦à¦¿ à¦",
  "2287": "à¦¿à¦à¦¶",
  "2288": "à¦°à§à¦¥à¦¾à§",
  "2289": "à¦° à¦­",
  "2290": "à¦°à§à¦¤à§à¦à¦¿à¦",
  "2291": "à¦° à¦¦à¦¶à¦",
  "2292": " à¦à§à¦¨à§à¦¦à§à¦°",
  "2293": "di",
  "2294": "à¦à§ à¦",
  "2295": " à¦à¦°à§à¦¤à§à¦",
  "2296": "à¦¾à¦¤à§à¦¤à§à¦¬à¦¿à¦",
  "2297": "à¦¿à¦à§à¦à¦¿à¦¨à§à¦¨",
  "2298": "à§, à¦¸",
  "2299": "à¦¬à¦¹à¦¿à¦",
  "2300": "à¦¬à¦¹à¦¿à¦à¦¸à¦à¦¯à§à¦",
  "2301": " à¦¸à§à¦®à¦¾à¦¨",
  "2302": " à¦¬à¦¾à¦£à¦¿à¦à§à¦¯",
  "2303": "à¦¿à¦à§à¦¯à¦¾à¦¤ à¦",
  "2304": "à¦¾à¦°à§à¦·à¦¿à¦",
  "2305": " à¦à¦¨à§à¦¨à¦¯à¦¼à¦¨",
  "2306": " à¦à¦°à§à¦¥à¦¨à§à¦¤",
  "2307": "à¦¤à¦¾",
  "2308": " à¦¬à¦à¦° à¦à¦",
  "2309": "à§à¦¯à¦¾à¦ªà§",
  "2310": "à¦à¦¨à¦¿à¦¯à¦¼à¦¨",
  "2311": "à¦°à§à¦ªà§à¦°à§à¦¶à¦¨",
  "2312": ", à¦",
  "2313": "à§à¦¯à¦¨à§à¦¤",
  "2314": " à¦¨à¦¾à¦®à§ à¦ªà¦°à¦¿à¦à¦¿à¦¤",
  "2315": "à§ à¦¦à§à¦",
  "2316": "à¦¾ à¦à§à¦²",
  "2317": " à¦°à¦¾à¦à¦¶à¦¾à¦¹à§",
  "2318": "à§à¦®à§à¦°à§",
  "2319": " à¦¬à§à¦¹à¦¤à§à¦¤à¦®",
  "2320": "à¦¾ à¦¬à¦¾à¦à¦²à¦¾à¦¦à§à¦¶",
  "2321": " à¦°à¦¾à¦à§à¦¯",
  "2322": "à¦¿à¦¤ à¦¹à¦¯à¦¼à¥¤\n",
  "2323": "à¦à§à¦à¦²à¦¿à¦",
  "2324": "à¦¾à¦¸à¦",
  "2325": "à¦¿à¦¬à¦°à§à¦¤à¦¨",
  "2326": "à¦¨à¦¬",
  "2327": "à§à¦ªà§à¦",
  "2328": "à§ à¦¬à¦¿à¦¬à§à¦",
  "2329": "à¦à¦¸",
  "2330": "à¦¿ à¦¥à§à¦",
  "2331": "à¦¿à¦à¦¬",
  "2332": " à¦¸à¦®à§à¦®",
  "2333": "à¦¬à¦¸à§à¦¥à¦¾à¦¨",
  "2334": " à¦°à§à¦",
  "2335": " à¦ªà¦¾à¦à¦¯à¦¼à¦¾ à¦¯à¦¾à¦¯à¦¼",
  "2336": "à¦¤à¦¿à¦·à§à¦ à¦¾à¦¨",
  "2337": "à¦¾à¦° à¦°",
  "2338": "à§ à¦à¦",
  "2339": "à§ à¦à¦£",
  "2340": "à§à¦° à¦¸à¦¬à¦à§à¦¯à¦¼",
  "2341": " à¦à¦¿à¦²à§à¦®à¦¿à¦à¦¾à¦°",
  "2342": "à¦ªà§à¦°à§à¦¬à¦¾à¦¬à§à¦¦",
  "2343": "à§ à¦ªà¦°à¦¿à¦£à¦¤",
  "2344": "¯à¦¨à§à¦¤à§à¦°",
  "2345": "à¦®à§à¦®",
  "2346": "à¦à§à¦à§à¦¬",
  "2347": " à¦à¦¾à¦²",
  "2348": "à¦° à¦«à¦²",
  "2349": "à§à¦°à§à¦¡",
  "2350": "à§à¦ªà§à¦°",
  "2351": "à¦¬à§à¦·à¦£",
  "2352": "à§à¦à¦",
  "2353": "à¦¾ à¦«",
  "2354": "à§à¦¡à¦¾à¦°à§à¦¶à¦¨",
  "2355": "\nà¦¸",
  "2356": " à¦¤à¦¾à¦",
  "2357": "à¦¤à¦¨à§à¦¤à§à¦°",
  "2358": "ist",
  "2359": "à§à¦­à¦¿à¦¯à¦¼à§à¦¤ à¦",
  "2360": "à¦°à§",
  "2361": "à§à¦° à¦ªà§à¦°à¦¾à¦¯à¦¼",
  "2362": " à¦à¦à¦°à§à¦ªà§à¦¯à¦¼",
  "2363": "à¦¿à¦¶à§à¦· à¦à¦°",
  "2364": "à¦¤à¦®à¦¾à¦²",
  "2365": " (à§§à§¯à§©",
  "2366": " à¦®à¦¹à¦¾à¦¸à¦¾à¦",
  "2367": " à¦ªà§à¦°à¦¶à¦¾à¦¨à§à¦¤ à¦®à¦¹à¦¾à¦¸à¦¾à¦à¦°",
  "2368": "à¦¿à¦¤à§à¦¤à¦¿à¦",
  "2369": "à¦¿à¦ªà§à¦°",
  "2370": "à¦¿à¦¤ à¦",
  "2371": ", à¦­à¦¾à¦°à¦¤",
  "2372": " à¦®à¦¿à¦²",
  "2373": "à¦¿à¦° à¦",
  "2374": " à¦²à§à¦",
  "2375": " à§¨à§§",
  "2376": "à¦à¦¤à¦¿à¦¹à¦¾à¦¸",
  "2377": "à§«à§¦",
  "2378": "à§à¦°à¦",
  "2379": "à¦¦à§à¦­à§à¦¤",
  "2380": "à§ à¦¥à¦¾à¦à§à¥¤\n",
  "2381": "à§;",
  "2382": "à§à¦° à¦à§à¦·à§à¦¤à§à¦°",
  "2383": "à§ à¦¤à§à¦²",
  "2384": " à¦¹à¦¯à¦¼à§à¦",
  "2385": " à¦à¦",
  "2386": ", à¦",
  "2387": "à§à¦° à¦¬à§à¦¹à¦¤à§à¦¤à¦®",
  "2388": " à¦¨à§",
  "2389": "à¦à¦²",
  "2390": " à¦¸à¦¾à¦®à¦°à¦¿à¦",
  "2391": ".à§¨",
  "2392": " à¦à¦°à§à¦",
  "2393": "à§à¦¶",
  "2394": "à¦¬à¦¾à¦¹à¦¿à¦",
  "2395": " à¦à¦¿à¦²à§à¦¨",
  "2396": "à§à¦° à¦¦à§à¦¬à¦¾à¦°",
  "2397": "à§à¦° à¦à¦à¦¶",
  "2398": " à¦à¦¨à§à¦·à§à¦ ",
  "2399": "à§à¦°à§à¦·à§à¦®",
  "2400": "à§à¦¸à¦°à¦à¦¾à¦°",
  "2401": "à¦¬à¦¾à¦¸",
  "2402": "à¦¾ à¦à¦°à§à¦à¦¨",
  "2403": "à§¬ à¦¸à¦¾à¦²",
  "2404": "me",
  "2405": "à§ à¦¬à¦²à¦¾ à¦¹à¦¯à¦¼",
  "2406": "el",
  "2407": "\nà¦¬",
  "2408": "à¦¾à¦° à¦",
  "2409": " à¦ªà¦°à¦¿à¦·à¦¦",
  "2410": " à¦ªà¦°à§à¦¬à¦¤à¦®à¦¾à¦²",
  "2411": "à¦¾à¦à¦¦",
  "2412": " à¦¬à¦°à§à¦à¦à¦¿à¦®",
  "2413": "§ à¦¸à¦¾à¦²",
  "2414": " à¦à¦¨à§à¦¦à§à¦²à¦¨",
  "2415": " à¦à¦¾à¦",
  "2416": "à§¨ à¦¸à¦¾à¦²",
  "2417": "à¦à§ à¦¸",
  "2418": " à¦à§à¦¨à§",
  "2419": "à¦¾ à¦à¦°à¦¾ à¦¹à¦¯à¦¼",
  "2420": "à¦°à§à¦¯à¦¨à§à¦¤",
  "2421": "à¦¿à¦à¦",
  "2422": "à¦à¦¨",
  "2423": "à§à¦° à¦ª",
  "2424": "à§à¦à§à¦",
  "2425": "à¦®à§à¦²",
  "2426": "¯à§à¦à§à¦¤à¦°à¦¾à¦à§à¦¯",
  "2427": "à§à¦¨à§à¦¦",
  "2428": "à§à¦¨ à¦¯",
  "2429": "à§à¦° à¦",
  "2430": "à¦­à§à¦¤",
  "2431": "al ",
  "2432": "à¦à¦¨à§",
  "2433": " à¦¶à§à¦°à§à¦£",
  "2434": "à¦à¦¿ à¦",
  "2435": "à§à¦¬à¦¯à¦¼",
  "2436": "\nà¦",
  "2437": " à¦à¦¯à¦¼à§à¦",
  "2438": "à¦à¦¿ à¦",
  "2439": " à¦¶à¦¾à¦¹",
  "2440": " à¦à§à¦²à§",
  "2441": "\nà¦¬à¦¹à¦¿à¦à¦¸à¦à¦¯à§à¦",
  "2442": "à§à¦° à¦¬à¦¿à¦°à§à¦¦à§à¦§",
  "2443": " à¦¦à¦¶à¦",
  "2444": "à¦«à¦²",
  "2445": "à¦¿à¦¯à§à¦",
  "2446": "à¦¿à¦¯à¦¼à¦¾à¦¸",
  "2447": " à¦¦à§à¦°à§à¦",
  "2448": " à¦¶à¦¤à¦¾à¦¬à§à¦¦à§à¦¤",
  "2449": "à§à¦¨ à¦à¦¬à¦",
  "2450": "à¦¾à¦¬à¦¿à¦",
  "2451": "à¦°à¦¾à¦¨",
  "2452": "à§ à¦à¦­",
  "2453": "à¦à¦",
  "2454": "à§à¦¶",
  "2455": "à§à¦° à¦¬",
  "2456": "à§à¦°à¦¿à¦¯à¦¼",
  "2457": "à¦¿ à¦¬à¦¿à¦¶à§à¦¬à¦¬à¦¿à¦¦à§à¦¯à¦¾à¦²à¦¯à¦¼",
  "2458": "à¦¾à¦à¦",
  "2459": "à¦¾à¦°à§à¦­",
  "2460": " à¦à¦¿à¦²à§",
  "2461": "à¦¯à¦¼à§à¦à¦¨",
  "2462": "à¦¾à¦ à¦¾à¦®à§",
  "2463": "à¦¿à¦°à§à¦®à¦¾à¦£",
  "2464": "à§ à¦¯à§à¦",
  "2465": "à¦à¦¨à§à¦¦à§à¦° à¦",
  "2466": "ur",
  "2467": "à§à¦·",
  "2468": " à¦¶à§à¦ à¦®à§à¦à¦¿à¦¬à§à¦° à¦°à¦¹à¦®à¦¾à¦¨",
  "2469": " à¦¨à¦¿à¦",
  "2470": "à§à¦à¦¿à¦¬",
  "2471": " à¦à§à¦¨",
  "2472": " à¦à¦¸à§à¦à§à¦°à§à¦²à¦¿à¦¯à¦¼",
  "2473": "à§à¦¯à¦¾à¦°à¦¿à¦¬",
  "2474": "à¦¾ à¦ªà§à¦¥à¦¿à¦¬à§à¦° à¦",
  "2475": "à§à¦®à§à¦¬",
  "2476": "à§à¦®à§à¦¬à¦",
  "2477": "\n| style=\"background:",
  "2478": "à¦¶ à¦¶à¦¤à¦",
  "2479": "à¦¾à¦°à§à¦¥à¦à§à¦¯",
  "2480": "à¦¤à¦¾à¦¬à¦¾à¦¦",
  "2481": " à§§à§¯à§«",
  "2482": "à¦¶à§à¦·",
  "2483": " à¦ªà§à¦·à§à¦ ",
  "2484": "à¦¿à¦° à¦ª",
  "2485": " à¦¬à¦¡à¦¼",
  "2486": " à¦¨à¦¾à¦®à¦",
  "2487": "à¦¾à¦° à¦°à¦¾à¦",
  "2488": "à¦¿à¦¸à¦à¦",
  "2489": "à¦¿à¦à¦¹",
  "2490": "à§à¦° à¦à¦¨à§à¦¯à¦¾à¦¨à§à¦¯",
  "2491": "à¦¸à§à¦¤à¦¾à¦¬",
  "2492": "à§à¦¯à¦",
  "2493": "à§à¦¯à¦à§à¦à¦¨",
  "2494": "à¦¶à§à¦¯",
  "2495": "à¦¿à¦¶à¦¿à¦·à§à¦",
  "2496": "ation",
  "2497": " à¦¯à§à¦®à¦¨",
  "2498": " à¦¨à¦¤à§à¦¨",
  "2499": " à¦¦à§à¦à¦¾ à¦¯à¦¾à¦¯à¦¼",
  "2500": "à¦ªà¦°",
  "2501": ") à¦à¦¬à¦",
  "2502": ".\n ",
  "2503": "and ",
  "2504": "à¦¿à¦¤à§ à¦¬",
  "2505": "à§à¦¯à¦®à¦¾à¦¨",
  "2506": ".à§®",
  "2507": "à¥¤ à¦à¦¿à¦¨à§à¦¤à§",
  "2508": " à¦¸à¦®à§à¦ªà§à¦°à¦¦à¦¾à¦¯à¦¼",
  "2509": "à¦¿à¦¤ à¦à¦¿à¦²",
  "2510": "à¦ª",
  "2511": "à¦¾à¦° à¦­",
  "2512": "à¥¤ à§§à§¯à§­",
  "2513": ".à§ª",
  "2514": "à§à¦¥à¦²",
  "2515": "à¦à¦²",
  "2516": " à¦¬à¦¾",
  "2517": "à¦¾à¦«à¦²",
  "2518": "à¦¿à¦­à¦¾à¦°à§à¦¸",
  "2519": "à¦ªà¦¾à¦¤à¦¾à¦²",
  "2520": "à¦¨à§",
  "2521": "à¦¾à¦à¦°à¦¿à¦",
  "2522": "à§à¦¨à¥¤",
  "2523": "à¦°à§à¦",
  "2524": " à¦°à§à¦²",
  "2525": "à§à¦¯à¦¾à¦",
  "2526": "à¦¸à§à¦¤à§",
  "2527": "-à¦",
  "2528": "lig",
  "2529": "à§ à¦«à§à¦²",
  "2530": "à¦à¦à§à¦",
  "2531": "à¦­à¦¿à¦¯à§à¦",
  "2532": "à§·",
  "2533": "à¦¬à¦°à§à¦¤à§à¦¤",
  "2534": "à¦¾ à¦ªà§à¦°à¦¤",
  "2535": "à¦¾à¦°à§à¦¦",
  "2536": "à¦¦à§à¦¦à§à¦¶",
  "2537": " à¦¸à§à¦®",
  "2538": " à¦à§à¦°à¦¿à¦",
  "2539": " à¦¸à¦¾à¦",
  "2540": " à¦¬à¦°à§à¦à¦à¦¿à¦®à¦¿\n",
  "2541": "à§à¦¯à¦¬à¦¹à¦¾à¦°",
  "2542": " à¦à¦¥",
  "2543": " à¦à¦¨à§à¦¦",
  "2544": " à¦à¦¬à¦ à¦",
  "2545": "à¦§à§à¦¬à¦¨",
  "2546": " à¦à¦¥à¦¬",
  "2547": "à§à¦° à¦¸à¦¾à¦®",
  "2548": " (à¦",
  "2549": " à¦à¦§",
  "2550": "à§\n",
  "2551": "à§ à¦à¦ ",
  "2552": " à§¨à§©",
  "2553": " à¦®à§à¦²à¦¤",
  "2554": "à¦à¦¾à¦à¦¦",
  "2555": "à¦¤à§ à¦¸",
  "2556": "à¦à§à¦·à¦®",
  "2557": "à¦¾ à¦à¦¬",
  "2558": "à¦à§ à¦ª",
  "2559": "à¦¬à§à¦¶",
  "2560": "à¦¸à¦²à¦®à¦¾à¦¨",
  "2561": " à¦§à¦¾à¦°",
  "2562": "à¦° à¦",
  "2563": " à¦¨à§à¦",
  "2564": " (à¦¯",
  "2565": " à¦¸à¦à¦²",
  "2566": "à¦¡à¦¼à¦¿à¦¯à¦¼à§ à¦ªà¦¡à¦¼",
  "2567": "à¦¿ à¦à¦¿à¦²",
  "2568": "à¦¹à¦¾à¦¯à¦¼à¦¤",
  "2569": "à§ à¦ªà§à¦°à¦¤à¦¿à¦·à§à¦ ",
  "2570": "à¦¸à¦¤",
  "2571": "à§ à¦à¦¾à¦",
  "2572": "à§à¦à§à¦",
  "2573": "à¦à¦¸",
  "2574": ", à¦¯à§à¦®à¦¨",
  "2575": "à¦¹à¦¨",
  "2576": " à¦¤à¦¥",
  "2577": "à¦ªà§à¦° à¦",
  "2578": "à§à¦¨à¥¤ à¦¬",
  "2579": " à¦ªà¦°à§à¦¯à¦¾à¦¯à¦¼",
  "2580": "à§ à¦¯à¦¾à¦à¦¯à¦¼",
  "2581": "à¦à§à¦¯à¦",
  "2582": "à§ à¦®à§à¦à¦¿à¦¬",
  "2583": "à¦¿à¦¨à¦¿",
  "2584": ", à¦",
  "2585": "à§à¦à¦¨",
  "2586": " à¦°à¦¯à¦¼à§à¦à§à¥¤ à¦",
  "2587": "à¦¿à¦­à¦¾à¦°à§à¦¸à¦¿à¦",
  "2588": "à¦¿à¦à¦¿à¦à¦",
  "2589": " à¦à¦¤à§à¦¤à¦° à¦à¦®à§à¦°à¦¿à¦",
  "2590": "à¦¨à§à¦®",
  "2591": " à¦à¦¨à¦ªà§à¦°à¦¿à¦¯à¦¼",
  "2592": "à¦à§à¦à¦²",
  "2593": "à§à¦° à¦",
  "2594": "à§, à¦ª",
  "2595": "à¦¨à§à¦¯à¦¦à¦¿à¦",
  "2596": "à§à¦° à¦à¦ªà¦°",
  "2597": "à¦¿à¦²à§à¦¡",
  "2598": "à¦²",
  "2599": "à§à¦°à¦¾à¦à¦¿à¦²",
  "2600": "-à¦",
  "2601": "à¦¾à¦¤à§",
  "2602": "à§à¦° à¦ªà¦¶à§à¦à¦¿à¦®",
  "2603": " à¦¸à¦à¦",
  "2604": " à¦à¦¾à¦¨",
  "2605": " à¦¹à¦¿à¦¨à§à¦¦à§",
  "2606": "à¦°à§à¦",
  "2607": "à§ à¦°à¦¾à¦",
  "2608": "à¦¿à¦¤ à¦ª",
  "2609": "à§à¦¯à¦¾à¦à¦°à¦£",
  "2610": " à¦à§à¦°à¦¨à§à¦¥",
  "2611": "à¦°à§à¦¯à¦¾à¦¦",
  "2612": "à§à¦° à¦¦à¦à§à¦·à¦¿à¦£",
  "2613": " à¦ à¦¨",
  "2614": "à¦¨à¦¾à¦¥",
  "2615": "-à¦ªà¦¶à§à¦à¦¿à¦®",
  "2616": "à¦¾à¦à¦¤",
  "2617": "à§ à¦¤à¦¾à¦¦",
  "2618": " à¦¬à§à¦¯à¦¬à¦¹à¦¾à¦° à¦à¦°",
  "2619": "à¦¦à¦°à§à¦¶",
  "2620": "à§à¦¬à¦²",
  "2621": "à¦¿à¦° à¦¦",
  "2622": "à¦à¦¿ à¦¨",
  "2623": " à¦à¦°à¦¾à¦° à¦à¦¨à§à¦¯",
  "2624": " à¦­à§à¦à¦£à§à¦¡",
  "2625": "à¦§à§à¦¯à¦¬",
  "2626": "ªà§à¦°à¦§à¦¾à¦¨",
  "2627": " à¦à¦²à¦¬à¦¾à¦¯à¦¼à§",
  "2628": "à¦¾, à¦",
  "2629": "à§à¦¯à§",
  "2630": "à¦° à¦",
  "2631": " à¦¦à§à¦¬",
  "2632": "à§à¦²à¦¾à¦",
  "2633": " à¦¶à§à¦·",
  "2634": "à¦¿à¦¤ à¦¹à¦¨",
  "2635": "à§à¦¨à¦¾à¦¬",
  "2636": " à¦¡à¦¿à¦¸",
  "2637": "à¦¬à§à¦¯à¦¾à¦ªà§",
  "2638": "à§ à¦ªà§à¦°à¦§à¦¾à¦¨",
  "2639": " à¦ªà§à¦°à¦§à¦¾à¦¨à¦®à¦¨à§à¦¤à§à¦°à§",
  "2640": "à¦à¦°à§à¦¤",
  "2641": "à¦¿à¦à¦¿ à¦",
  "2642": "à¦¿.à¦®",
  "2643": "à¥¤\nà¦¸",
  "2644": "à§ à¦à¦¨à§à¦¨",
  "2645": "à¦¤à§ à¦ª",
  "2646": "à§à¦° à¦¸à¦°à§à¦¬",
  "2647": " à¦à¦¤",
  "2648": "à¦¨ à¦¬",
  "2649": "à¦¿à¦®à¦¾à¦¨à¦¬",
  "2650": "à§à¦¸à¦¬",
  "2651": "à¦à§à¦²",
  "2652": "\n\n",
  "2653": "à¦¿à¦¨à§à¦§",
  "2654": " à¦à¦°à§ à¦à¦¬à¦",
  "2655": "à¦¿ à¦",
  "2656": "à¦²à¦¿à¦",
  "2657": "à¦°à§à¦·à¦£",
  "2658": "à§à¦° à¦¤à§à¦²à¦¨à¦¾à¦¯à¦¼",
  "2659": "à§ à¦à¦¶à¦¿à¦¯à¦¼",
  "2660": "à¦¾à¦à¦¾à¦¨",
  "2661": "à¦à§à¦à¦¾à¦¨",
  "2662": "à¦¯à¦¼à¦¤à¦¨",
  "2663": "à¦¾ à¦¨à¦¾à¦®",
  "2664": "à¦¾, à¦¯",
  "2665": "à¦à¦à§à¦¯",
  "2666": " à¦¬à¦¾à¦à¦²à¦¾ à¦­à¦¾à¦·",
  "2667": ".à§¬",
  "2668": "à¦¿à¦¦à¦°à§à¦¶à¦¨",
  "2669": "à§ à¦­à¦¾à¦",
  "2670": "à¦¾à¦°à¦¸",
  "2671": "à¦à¦¤",
  "2672": " à¦¹à¦¾à¦°",
  "2673": "à§ à¦¬à¦¡à¦¼",
  "2674": "à¦¨à¦¿",
  "2675": "à§§ à¦à§à¦°à¦¿à¦·à§à¦à¦¾à¦¬à§à¦¦",
  "2676": "à¦¨à§ à¦à¦°",
  "2677": "à§ à¦¸à¦®à§à¦ªà¦°à§à¦",
  "2678": "à§ à¦à¦¿à¦à§",
  "2679": "à§à¦° à¦à§à¦¯à¦¼",
  "2680": "à¦¿ à¦­",
  "2681": "à¦¾\"",
  "2682": "à¦¾, à¦¸",
  "2683": " \n ",
  "2684": "gc",
  "2685": " à§¯à§",
  "2686": "à¦°à¦¾à¦·à§à¦à§à¦°",
  "2687": " à¦¹à¦¾à¦à¦¾à¦°",
  "2688": "à¦¿à¦¯à§à¦à¦¿à¦¤",
  "2689": "à§à¦° à¦à¦",
  "2690": "à§à¦¤à§à¦¤",
  "2691": "à¦¿à¦¶à¦¾à¦²à§",
  "2692": "à¦° à¦¨à¦¾à¦®",
  "2693": " à¦à¦¨à§à¦¡",
  "2694": " à¦ªà¦°à¦¿à¦à¦¾à¦²",
  "2695": "à¦ªà¦¾à¦à¦¿à¦¸à§à¦¤à¦¾à¦¨",
  "2696": "à§, à¦à¦¬à¦",
  "2697": "à¦° à¦à¦",
  "2698": "à¦ªà§à¦°à¦¿à¦²",
  "2699": " à¦à¦¹à¦®",
  "2700": "à¦¾ à¦¶à¦¹à¦°",
  "2701": "à¦¶à¦®",
  "2702": "à¦à¦",
  "2703": "à¦°à¦ª",
  "2704": "à§ à§©",
  "2705": "à§à¦°à§à¦·",
  "2706": "à¦¾à¦²à§à¦",
  "2707": "à§à¦¶",
  "2708": ", à¦à¦",
  "2709": " à¦à§à¦°",
  "2710": "à§à¦° à§¨",
  "2711": " à¦à§à¦¯à¦¾à¦¸",
  "2712": "à§© à¦¸à¦¾à¦²",
  "2713": "à§à¦° à¦à§à¦°à¦¿à¦à§à¦",
  "2714": "à§à¦¯à¦¾à¦",
  "2715": "à¦ à¦",
  "2716": " à¦à§à¦°à§à¦¡à¦¼",
  "2717": "à§ª à¦¸à¦¾à¦²",
  "2718": "à¦®à§à¦¨à§à¦",
  "2719": "à§à¦¦à§à¦°",
  "2720": "à¦¾à¦à¦",
  "2721": "à§à¦²à¦¨",
  "2722": "à¦¦à§à¦¦à§à¦¶à§à¦¯",
  "2723": "à§à¦§",
  "2724": "à¦à¦à§à¦à¦à§à¦°à¦¾à¦®",
  "2725": "à§à¦°à¦¤à§à¦¬",
  "2726": "à§ à¦à¦²à§à¦²à§à¦à¦¯à§à¦à§à¦¯",
  "2727": " à¦à¦ à¦¨",
  "2728": "à¦¾à¦à¦°à¦¿à¦·à§à¦ ",
  "2729": "à¦à¦²à¦¨",
  "2730": "à¦à§à¦·à§à¦ª",
  "2731": "à§à¦",
  "2732": "à§à¥¤ à¦",
  "2733": "à¦¬à¦à¦¶",
  "2734": "à§à¦¯à¦¨à§à¦¤ à¦",
  "2735": "à§à¦®à¦¾à¦¨à¦¿à¦",
  "2736": "à¦¿à¦¶à§à¦",
  "2737": "à¦à§à¦²à¦¿à¦¤",
  "2738": "à§ à¦¹à¦¬",
  "2739": " à¦¬à¦¿à¦¶à§à¦·",
  "2740": " à¦¬à¦à§à¦",
  "2741": "à¦¿à¦à§à¦",
  "2742": " à¦ ",
  "2743": " à¦¬à¦°à§à¦¤à¦®à¦¾à¦¨",
  "2744": " à¦à§à¦",
  "2745": "¯à¦¥à§à¦·à§à¦",
  "2746": " à¦à¦°à¦¬",
  "2747": "à¦¸à§à¦¥à¦¿à¦¤",
  "2748": "à§à¦ªà§à¦°à¦¤à¦¿à¦",
  "2749": "à§, à¦",
  "2750": "à¦¾à¦¯à¦¼à¦£",
  "2751": "Th",
  "2752": "                                                                ",
  "2753": " à¦¨à¦¦à§",
  "2754": "à¦¿à¦°à§à¦§à§",
  "2755": "à¦ªà§à¦°à¦¤",
  "2756": " à¦®à¦¾à¦°à§à¦à¦¿à¦¨ à¦¡à¦²à¦¾à¦°",
  "2757": "à¦¾à¦à¦¡à¦¼",
  "2758": "à¦¡à¦¼",
  "2759": " à¦¸à¦¦à¦¸à§à¦¯",
  "2760": "à¦à¦¿ à¦ªà§à¦°à¦§à¦¾à¦¨",
  "2761": "à§à¦° à¦¬à¦¿à¦­à¦¿à¦¨à§à¦¨",
  "2762": "à§à¦¬à¦à¦¸",
  "2763": "à§à¦¨à¦¤",
  "2764": " à¦¸à¦®à¦¯à¦¼à¦à¦¾à¦²",
  "2765": "à§à¦¯à¦¬à¦¸",
  "2766": "à¦¿à¦¬à¦¿à¦¦",
  "2767": "à¦¤à§à¦®",
  "2768": " à¦à¦à¦¸à§à¦",
  "2769": "à¦¤à§à¦¤à§à¦¬à¦¾à¦¬",
  "2770": "à§à¦¨à¦°à¦¾à¦¯à¦¼",
  "2771": " (à¦¸",
  "2772": "à¦à§à¦¯à¦¾à¦¨",
  "2773": " à¦®à¦¾à¦à¦²",
  "2774": "à¦à¦à§à¦",
  "2775": "à¦¿.à¦®à¦¿.",
  "2776": "à¦à§à¦",
  "2777": "à¦° à¦°",
  "2778": "à¦° à¦ªà¦°",
  "2779": "à§à¦¶à¦²",
  "2780": "à¦¸à§à¦à¦¿à¦à¦¿à¦à¦",
  "2781": "à¦à§à¦²à§à¦° à¦®à¦§à§à¦¯",
  "2782": "à§à¦°à¦¹",
  "2783": "à¦°à¦¿à¦ à¦¬",
  "2784": "à¦¿à¦ªà§à¦°",
  "2785": " à¦à¦¾à¦°à§à¦®à¦¾à¦¨",
  "2786": "-à§¨à§¦à§¦",
  "2787": " à¦à¦¾à¦¬à§à¦¯",
  "2788": "à¦à¦¾à¦ª",
  "2789": "a ",
  "2790": "à§à¦°à¦­",
  "2791": " à¦¸à§à¦",
  "2792": " à¦«à§à¦°",
  "2793": "à¦§à§à¦¯à¦¯à¦¼",
  "2794": " à¦¸à¦à¦",
  "2795": "à¦­à¦¾à¦°",
  "2796": "à¦¾à¦°-",
  "2797": " à¦¬à¦¿à¦¶à§à¦¬à¦¯à§à¦¦à§à¦§",
  "2798": "à§à¦°à§à¦° à¦",
  "2799": "bgc",
  "2800": "bgcol",
  "2801": "bgcolor",
  "2802": "bgcolor=",
  "2803": "à¦¾ à¦¬à¦¾à¦à¦²",
  "2804": "à¦¿ à¦à¦¨",
  "2805": "à§à¦° à¦®à§à¦",
  "2806": "à¦¬à¦°à§à¦¤à¦®à¦¾à¦¨",
  "2807": "à§ à¦ªà§à¦°à¦¾à¦à§à¦¨",
  "2808": "à¦¶à§à¦¯à¦¼",
  "2809": "à¦¿à¦¤ à¦",
  "2810": "à§à¦¨à¦¿à¦",
  "2811": "à§à¦¬à§à¦²",
  "2812": "à¦à¦¯à¦¼à§",
  "2813": "à¦¾à¦¯à¦¼à¦",
  "2814": " à¦¬à§à¦°à¦¿à¦à¦¿à¦¶",
  "2815": ":\n",
  "2816": " à¦à¦¬à¦¸à§à¦¥à¦¾à¦¨",
  "2817": "à¦¿à¦°à§à¦¦à§à¦¶",
  "2818": "à§à¦¶à¦¿à¦°à¦­à¦¾à¦",
  "2819": "à§à¦° à¦®à§à¦²",
  "2820": "à¦®à¦¾à¦²",
  "2821": "à¦à§à¦° à¦",
  "2822": "à¦¿à¦¯à¦¼à¦®",
  "2823": "à§à¦",
  "2824": "    \n                        ",
  "2825": " à¦¸à¦¾à¦®à§à¦¦à§à¦°à¦¿à¦",
  "2826": "à§à¦¯à§à¦¤à§à¦¥à¦¾à¦¨",
  "2827": "à§à¦° à¦à¦¨à¦¸à¦à¦à§à¦¯",
  "2828": " à¦à¦°à¦",
  "2829": " à¦¸à¦¾à¦°",
  "2830": " à¦à¦¾à¦°à§à¦¯à¦",
  "2831": "à¦à¦¿ à¦¦à§à¦¶",
  "2832": "à§à¦° à¦¶",
  "2833": "à¦¤à¦¿à¦¹à§à¦¯",
  "2834": " à¦¥à§à¦à§ à¦ª",
  "2835": " à¦¤à¦¿à¦¨à¦¿ à¦",
  "2836": " à¦à¦à¦à¦¨",
  "2837": "à§ à¦¸à§à¦¥à¦¾à¦¨",
  "2838": " à¦¸à§à¦¨à¦¾à¦¬",
  "2839": "à§ à¦¥à§à¦",
  "2840": "à¦¾à¦°à§à¦²",
  "2841": " à¦¨à¦¾à¦°à§",
  "2842": "à¦¶à§à¦¬à¦¿à¦",
  "2843": " à¦à¦²à§à¦²à§à¦à¦¯à§à¦à§à¦¯",
  "2844": "à¦¬à¦¹à¦¾à¦à¦¯à¦¼",
  "2845": " à¦ªà§à¦°à§à¦·",
  "2846": "à¦¾à¦° à¦",
  "2847": " à¦¬à§à¦¯à¦à§à¦¤",
  "2848": " à¦à§à¦·",
  "2849": " à¦¬à¦¿à¦¸à§à¦¤",
  "2850": "¦à¦²",
  "2851": "à¦à§à¦°à¦¾à¦¨à§à¦¤ à¦",
  "2852": " à¦à§à¦à§à¦¤",
  "2853": "à¦à¦¿à¦",
  "2854": " à§§à§¯à§©",
  "2855": "à§ à¦à¦à¦à¦¿",
  "2856": "à§à¦° à¦",
  "2857": "à¦¾à¦à¦²",
  "2858": "à¦¿à¦¤ à¦¹à¦¯à¦¼à¥¤ à¦",
  "2859": "à§à¦° à¦à§à¦²",
  "2860": "à§à¦¨à¦¿à¦¯à¦¼",
  "2861": "à¦­à¦¾à¦°à¦¤à§à¦¯à¦¼",
  "2862": "à¦¹à¦¾à¦",
  "2863": " à¦à¦ªà¦¾à¦¦à¦¾à¦¨",
  "2864": " à¦®à¦¨à§à¦¦",
  "2865": "od",
  "2866": "à§ à¦®à§à¦à§à¦¤",
  "2867": "à§à¦°à§à¦¹",
  "2868": "à¦²à§à¦",
  "2869": "à¦°à§à¦¡",
  "2870": "à¦à§",
  "2871": "à§ â",
  "2872": "à§à¦­à¦¿à¦¯à¦¼à§à¦¤ à¦à¦à¦¨à¦¿à¦¯à¦¼à¦¨",
  "2873": "à¦¬à¦¾à¦¬",
  "2874": "à¦¾à¦®à§à¦¨à§à¦",
  "2875": "à¦¿à¦²à¦¿à¦ª",
  "2876": " à¦à¦®à§à¦°à¦¿à¦à¦¾à¦¨",
  "2877": " à¦à¦à¦°",
  "2878": "à§à¦ªà§à¦¨à§à¦¯à¦¼",
  "2879": " à¦à¦¬à¦¬à¦¾à¦¹à¦¿à¦",
  "2880": "à¦¾\n|",
  "2881": "à¦­à§",
  "2882": "à¦¾à¦­à¦¾à¦·",
  "2883": "à§à¦°à§à¦",
  "2884": " à¦à¦²à§à¦²à§à¦",
  "2885": "à§ à¦²à§à¦",
  "2886": "à¦¾à¦¨à¦¾à¦¨",
  "2887": "à¦¿ ",
  "2888": "à¦­à§",
  "2889": "à¦¹à¦¿à¦²",
  "2890": "à§à¦¯à¦¾à¦¥",
  "2891": "-à¦à¦° à¦¦à¦¶à¦",
  "2892": "à§à¦¬à§à¦ªà¦ªà§à¦à§à¦",
  "2893": "à¦à¦¾à¦¡à¦¼à¦¾à¦",
  "2894": "à¦¿à¦¤ à¦ªà§à¦°",
  "2895": "à§ à¦¬à¦¿à¦­à¦à§à¦¤ à¦",
  "2896": " à¦¬à¦¿à¦­à¦¾à¦",
  "2897": "à§ à¦¬à§",
  "2898": "à§ à¦¬à¦°à§à¦¤à¦®à¦¾à¦¨",
  "2899": "°à§à¦ª",
  "2900": "à¦¾ ",
  "2901": "à¦¿ à¦«",
  "2902": "à¦¸à§à¦ª",
  "2903": "à¥¤ à¦à¦à¦",
  "2904": " à¦ªà¦¾à¦ ",
  "2905": "à¦¸à§à¦¥à¦¾à¦ª",
  "2906": "à¦¾à¦¨à§ à¦¹à¦¯à¦¼",
  "2907": "à¦¨à¦¾à¦²",
  "2908": "à¦¶à¦¿à¦à§à¦·",
  "2909": " à¦à¦°à¦",
  "2910": " à¦¦à§à¦à§à¦¨",
  "2911": "om",
  "2912": "à¦¸à¦¾à¦¹à¦¿à¦¤à§à¦¯",
  "2913": "à§§à§¯à§­",
  "2914": "à¦¾à¦°à¦¿à¦¦",
  "2915": " à¦¸à¦®à§à¦¦à§à¦§",
  "2916": " à¦²à¦¾à¦",
  "2917": "à§à¦° à¦¸à¦à¦à§à¦¯",
  "2918": "à§à¦·à§à¦à¦¿ à¦¹à¦¯à¦¼",
  "2919": " à¦à¦¤à¦¿à¦¹à¦¾à¦¸à¦¿à¦",
  "2920": "à§, à¦®",
  "2921": " à¦à¦¨à¦à§à¦·à§à¦ ",
  "2922": "à§à¦° à¦¶à¦¾à¦¸à¦¨",
  "2923": "à§à¥¤ à¦®",
  "2924": " à¦®à§à¦¦à§à¦°",
  "2925": "à¦¡à¦¼",
  "2926": "à¦¿à¦à¦¯à¦¼",
  "2927": "à¦¤à§ à¦¥à¦¾à¦",
  "2928": "à¦¾ à¦¦à§à¦¯à¦¼",
  "2929": " à§¯",
  "2930": "à¦¿à¦",
  "2931": " à¦¸à¦¾à¦¥",
  "2932": " à¦à¦à¦¨à¦¿à¦¯à¦¼à¦¨",
  "2933": " à¦®à¦¾à¦¤à§à¦°",
  "2934": "à§§à§«",
  "2935": "à¦¬à¦¿à¦¶à§à¦¬",
  "2936": " à§«à§¦",
  "2937": "à¦¨à§à¦¤à§à¦°à¦£à¦¾à¦²à¦¯à¦¼",
  "2938": "à¦¸à§à¦",
  "2939": "à¦¾à¦²à¦¤",
  "2940": "à¦­à§à¦¯à¦¨à§à¦¤",
  "2941": "à¦¾à¦° à¦¸à¦®à¦¯à¦¼",
  "2942": "à§à¦° à¦",
  "2943": "à§ à¦¸à¦¬à¦à§à¦¯à¦¼",
  "2944": "à§à¦° à¦¸à¦¦à¦¸à§à¦¯",
  "2945": "à¦¾à¦° à¦¦à§à¦¶",
  "2946": "à§ à¦à¦¬à¦¸à§à¦¥à¦¿à¦¤ à¦",
  "2947": " à¦«à§à¦à¦¬à¦²",
  "2948": "à§à¦à§à¦²à§",
  "2949": "à¦¿à¦à§à¦²",
  "2950": "200",
  "2951": "er ",
  "2952": "lo",
  "2953": "et",
  "2954": "à¦¾à¦°\n",
  "2955": " à¦à§à¦®à§à¦ªà¦¾à¦¨",
  "2956": "à§à¦à§à¦",
  "2957": "à§ à¦à¦®",
  "2958": "-à§§à§¯à§­",
  "2959": "à§à¦°à¦¿à¦®",
  "2960": " à¦à¦ªà¦à§à¦°à¦¹",
  "2961": "à¦¾à¦¤à¦¿à¦¨",
  "2962": " à¦¥",
  "2963": " à¦à§à¦¬",
  "2964": "à§à¦ªà¦¾à¦¨",
  "2965": " à¦¹à¦¾à¦¸à¦ªà¦¾à¦¤à¦¾à¦²",
  "2966": " à¦¸à§à¦°à§à¦¯",
  "2967": "à¦¶à¦¾à¦¨à§à¦¤ à¦®à¦¹à¦¾à¦¸à¦¾à¦",
  "2968": "à¦¾à¦°à§à¦¬à¦­à§",
  "2969": "à§à¦°à¦¿à¦ªà§à¦°",
  "2970": "à¦¤à§à¦¯à¦",
  "2971": " à¦¬à¦¾à¦à¦¾à¦²",
  "2972": "à¦¿ à¦",
  "2973": "¯à§",
  "2974": "à¦à§ à¦",
  "2975": "à§à¦ªà§à¦¤ à¦",
  "2976": "à§ à¦¸à¦¾à¦¥",
  "2977": "à¦ªà§à¦°à¦¾à¦à§à¦¨",
  "2978": "à§à¦° à¦à¦¥",
  "2979": "à¦¦à¦¾à¦¹à¦°à¦£à¦¸à§à¦¬à¦°à§à¦ª",
  "2980": "à¦¿à¦¤ à¦¹à¦¯à¦¼à§à¦à¦¿à¦²",
  "2981": "à¦à§à¦à¦¾à¦°à¦£",
  "2982": "à§à¦¥à¦¿à¦¤",
  "2983": "¯à¦¥à¦¾à¦",
  "2984": "¯à¦¥à¦¾à¦à§à¦°à¦®",
  "2985": "à¦¿,",
  "2986": " à¦à¦à¦à¦¿ à¦¬",
  "2987": "°à¦¾à¦à§à¦¯",
  "2988": "à¦¦à¦¾à¦¨ à¦à¦°",
  "2989": "à¦§à¦¾à¦°",
  "2990": "ct",
  "2991": " à¦¤à¦¬",
  "2992": " à¦¹à¦¯à¦¼à§à¦à§à¥¤ à¦",
  "2993": "à¦¿à¦¨à§",
  "2994": " à¦¸à§à¦ª",
  "2995": "à¦¾ à¦¶à§à¦°à§",
  "2996": " à¦à¦¬à¦¸à§à¦¥à¦¿à¦¤",
  "2997": " à¦¨à¦¦",
  "2998": "à¦à¦¿ à¦ªà§à¦°",
  "2999": " à¦ªà¦°à§à¦¯à¦¨à§à¦¤ à¦¬",
  "3000": "à§ à¦¦à§",
  "3001": "à¦²à¦¨",
  "3002": "à§ à¦à¦²à§à¦²à§à¦",
  "3003": "à§ à¦¤à§à¦°",
  "3004": "à§à¦à§à¥¤ à¦",
  "3005": "à§à¦° à¦®à¦¾à¦",
  "3006": " à¦¶à¦¿à¦²",
  "3007": " à¦¸à¦®à§à¦­à¦¬à¦¤",
  "3008": "à¥¤ à¦ªà¦°",
  "3009": "à¦ªà¦¨à¦¿à¦¬à§à¦¶",
  "3010": "à¦¿à¦ªà§à¦²",
  "3011": "à¦¿à¦¯à§à¦¦à§à¦§",
  "3012": "à§ à¦®à¦¾à¦°à§à¦",
  "3013": "à§à¦¯à¦¼à¦¾à¦¦",
  "3014": "à§¨à§§",
  "3015": " à¦¬à¦¾à¦",
  "3016": "°à¦¾à¦à¦¶à¦¾à¦¹à§",
  "3017": "à¦¾ à¦",
  "3018": " à§§à§¦à§¦",
  "3019": " à¦¶à¦¿à¦¶",
  "3020": "à¦¾à¦°à¦®",
  "3021": "à§ à¦à¦à¦°à§à¦",
  "3022": " à¦¥à§à¦à§ à¦¸",
  "3023": " à¦à¦à¦¨à¦¿à¦­à¦¾à¦°à§à¦¸à¦¿à¦",
  "3024": "à§à¦° à¦¨à§à¦¤à§à¦¤à§à¦¬",
  "3025": "à¦¾ à¦ªà§à¦°à¦¤à¦¿à¦·à§à¦ à¦¾à¦¨",
  "3026": "à¦°à§à¦",
  "3027": "à§à¦¹",
  "3028": "à¦°à§à¦¯à¦",
  "3029": "à¦¾à¦à¦¯à¦¼",
  "3030": "à¦¾à¦à§à¦",
  "3031": "à¦¤à¦¥à§à¦¯à¦¸à§à¦¤à§à¦°\nà¦¬à¦¹à¦¿à¦à¦¸à¦à¦¯à§à¦",
  "3032": "à¦¾à¦§à¦¨",
  "3033": "à¦¾à¦à¦¾à¦",
  "3034": "à§ à¦¦à¦²",
  "3035": " à¦¤à¦¿à¦¨à¦¿",
  "3036": "à¦¾à¦à¦®",
  "3037": "à¦ à¦®à¦¾à¦°à§à¦",
  "3038": "à¦à¦¿à¦²",
  "3039": "à¦«à§à¦°",
  "3040": "à¦¬à¦¿à¦¤à§à¦° à¦",
  "3041": "à¦²à¦¿à¦®",
  "3042": "In",
  "3043": "à§à¦°à§à¦£",
  "3044": ")\n à¦¸",
  "3045": "à§à¦à§à¦°à§à¦ª",
  "3046": "à¦²à¦¿à¦à¦¨",
  "3047": "à§à¦° à¦ªà¦¾à¦¨",
  "3048": "à¦à§à¦²à¦¿à¦° à¦®à¦§à§à¦¯",
  "3049": " à¦«à¦°à¦¾à¦¸",
  "3050": "à¦§à§à¦¯à¦¸",
  "3051": "à§à¦¸",
  "3052": "à§à¦¸à§à¦ªà¦¾à¦¨",
  "3053": "à¦¿à¦¨à¦²à§à¦¯à¦¾à¦¨à§à¦¡",
  "3054": " à¦²à¦¬à¦£",
  "3055": " à¦¬à¦à¦° à¦ªà§à¦°à§à¦¬",
  "3056": "lime",
  "3057": "à¦·à§à¦ ",
  "3058": "à¦¾à¦®à¦¾à¦¨",
  "3059": " à¦ªà¦°à¦¿à¦®à¦¾à¦£",
  "3060": "à¦¿à¦° à¦ªà¦°",
  "3061": "à¦¿à¦¬à¦¾à¦¸à§",
  "3062": "à¦¾ à¦à¦¨à§à¦¦à§à¦²à¦¨",
  "3063": "à¦¸à§à¦¤à¦¿à¦¤à§à¦¬",
  "3064": " à¦à§à¦¸",
  "3065": " à¦à¦°à§à¦à¦¿à¦²",
  "3066": "à§à¦°à¦¿à¦·à§à¦",
  "3067": "à§ à¦à¦¬",
  "3068": " à¦¯à§à¦",
  "3069": " à¦¸à§à¦¤à¦°",
  "3070": "à¦¯à¦¼à§à¦",
  "3071": "à§à¦",
  "3072": "à¦¿ à¦à¦°à¦¾ à¦¹à¦¯à¦¼",
  "3073": "à¦¾, à¦",
  "3074": "à¦¬à§à¦¨à§à¦¦",
  "3075": " (à¦",
  "3076": "à¦®à§à¦¯",
  "3077": "à¦¸à¦¨à§à¦¤",
  "3078": "à§ à¦¬à¦°à§à¦£",
  "3079": "à§à¦¹à§à¦¤à§",
  "3080": "à¦¾ à¦ªà§à¦°à¦¾à¦¯à¦¼",
  "3081": "à¦¿ à¦¹à¦¿à¦¸à§à¦¬",
  "3082": " à¦­à¦¾à¦²",
  "3083": "à¦ªà¦¦",
  "3084": "à¦¾à¦£à¦¿à¦à§à¦¯à¦¿à¦",
  "3085": "à§à¦ªà¦¾à¦¦à¦¨",
  "3086": "à§ à¦¸à¦®à¦¯à¦¼",
  "3087": "°à¦¾à¦à¦¨à§à¦¤à¦¿à¦",
  "3088": "à¦¾à¦à§à¦",
  "3089": "à§à¦° à¦à¦",
  "3090": " à¦¬à§à¦¯à¦¾à¦à¦",
  "3091": ".à§­",
  "3092": " à¦®à¦¾à¦¨à¦¬",
  "3093": "à¦¨à§à¦¨à¦¯à¦¼à¦¨",
  "3094": "à§à¦°à¦¾à¦",
  "3095": "à§à¦° à¦",
  "3096": "à¥¤ à¦à¦à¦¿ à¦",
  "3097": "à§ à¦®à¦¿à¦²",
  "3098": "à§ à¦¦à§à¦°à§à¦",
  "3099": " à¦¹à¦¯à¦¼à§ à¦à¦ ",
  "3100": " à¦à¦­à¦¿à¦¯à¦¾à¦¨",
  "3101": "à¦¦à§à¦¦à¦¿à¦¨",
  "3102": "à§à¦° à¦ªà§à¦°à¦­à¦¾à¦¬",
  "3103": "à¦¯à¦¼à¦²",
  "3104": "à§ à¦à¦¨",
  "3105": "à¦¨à§à¦¤à¦¿à¦¬à¦¿à¦¦",
  "3106": "à§ à¦§à¦°à§à¦®",
  "3107": " à¦¨à§à¦¯à¦¼",
  "3108": "à¦à¦",
  "3109": "à§¬à§¦",
  "3110": " à¦¸à¦®à§à¦¦à§à¦° à¦",
  "3111": "à§ à§ª",
  "3112": " à¦¤à¦¾à¦ªà¦®à¦¾à¦¤à§à¦°",
  "3113": "à¦¬à¦¹à§à¦²",
  "3114": ".à§§",
  "3115": "à¥¤ à§¨à§¦à§¦",
  "3116": "à§ à¦­à¦¾à¦·",
  "3117": "à§à¦à¦¾à¦°",
  "3118": "à¦¾à¦²à¦¨ à¦à¦°",
  "3119": "à§à¦§à§à¦®",
  "3120": "à¦¾à¦° à¦à¦¨",
  "3121": " à¦ à¦ªà§à¦°à§à¦¬",
  "3122": "à¦¾, à¦¨",
  "3123": "à§à¦° à¦à¦¬",
  "3124": "à§à¦¤à¦²",
  "3125": " à¦à§à¦°",
  "3126": "à¦¿à¦à¦¾à¦²",
  "3127": "à¦¯à¦¼à¦¦",
  "3128": "à§à¦°à¦¾à¦®",
  "3129": " à¦¸à¦à¦¬à¦¾à¦¦",
  "3130": "à§à¦²",
  "3131": "à§à¦¸à§à¦¨",
  "3132": "à§à¦°",
  "3133": "à¦·à§à¦£à¦¬",
  "3134": "à¦¿à¦®à¦¾à¦²à¦¯à¦¼",
  "3135": "à¦à¦¨",
  "3136": "à¥¤ à¦¯à¦¦à¦¿à¦",
  "3137": "à§à¦¶à¦¿à¦·à§à¦à§à¦¯",
  "3138": "à§à¦° à¦¸à§à¦¬à¦¾à¦§à§à¦¨à¦¤",
  "3139": "à¦ªà¦¾à¦¤ à¦",
  "3140": "à§à¦° à¦«",
  "3141": "à¦¿à¦¨à¦¾à¦¯à¦¼à¦",
  "3142": " à¦à¦",
  "3143": "à§ à¦¶à§à¦ à¦®à§à¦à¦¿à¦¬à§à¦° à¦°à¦¹à¦®à¦¾à¦¨",
  "3144": "à§à¦ªà¦¿à¦",
  "3145": "à¦¿à¦à§à¦²",
  "3146": "à§à¦¨à§à¦¡",
  "3147": "à¦¯à¦¼à§à¦¨à§à¦",
  "3148": "à§à¦à§à¦à§",
  "3149": " à¦à¦¦",
  "3150": "à§ à¦à¦¡à¦¼",
  "3151": "à§à¦§à§à¦°",
  "3152": " à¦à¦¬à¦ à¦ª",
  "3153": "à¦¾à¦°à§à¦¨",
  "3154": "à§à¦¯à¦¾à¦°à¦¿à¦¬à¦¿à¦¯à¦¼à¦¾à¦¨",
  "3155": " à¦¯à¦à¦¨",
  "3156": " à¦¬à§à¦¶à¦¿à¦·à§à¦à§à¦¯",
  "3157": "à§à¦",
  "3158": "à§ à¦ªà§à¦°à¦¬à¦¾à¦¹",
  "3159": "à§à¦à§à¦°à§à¦ªà¦²à¦¿à¦à¦¨",
  "3160": "à¦¾à¦° à¦à¦°à§à¦¥",
  "3161": "à¦¿à¦²à¦¿à¦ªà¦¾à¦à¦¨",
  "3162": " à¦à¦¦à§à¦­",
  "3163": " à¦à§à¦²à¦¾à¦°à§à¦§",
  "3164": "lime;\"|",
  "3165": "à¦¾ à¦­à¦¾à¦°à¦¤",
  "3166": "à§ à¦°à¦¾à¦·à§à¦à§à¦°",
  "3167": "-à¦",
  "3168": "à¦¿ à¦¬à¦¾à¦à¦²",
  "3169": "à§à¦° à¦à¦¨à§à¦",
  "3170": "à§à¦",
  "3171": "à¦¾à¦° à¦ªà§à¦°à§à¦¬",
  "3172": " à¦ªà¦°à§à¦¯à¦¨à§à¦¤",
  "3173": " à¦ à¦",
  "3174": " à¦°à¦¯à¦¼à§à¦à§à¥¤\n",
  "3175": " \nà¦¬à¦¾à¦à¦²à¦¾à¦¦à§à¦¶",
  "3176": "à¦¤à¦¾à¦²",
  "3177": "à§à¦°à§à¦²",
  "3178": "à¦à¦",
  "3179": "à¦²à¦à¦¾à¦¤",
  "3180": "à§à¦¨à¥¤ à¦",
  "3181": "à§à¥¤ à¦¤à¦¬",
  "3182": ", à¦¢à¦¾à¦",
  "3183": "à¦¤à§ à¦ªà¦¾à¦°à§à¥¤ à¦",
  "3184": "à¦¾à¦¹à¦¾à¦¡à¦¼",
  "3185": "à¦¾ à¦¸à¦¤à§à¦¤à§à¦¬à§à¦",
  "3186": "à§ à¦ªà¦¶à§à¦à¦¿à¦®",
  "3187": "à¦®à¦¨à¦",
  "3188": "à¦à§à¦²à§à¦¤",
  "3189": "¹à¦²",
  "3190": "à¦¿à¦¤ à¦®",
  "3191": "à§ à¦ªà§à¦°à¦à¦¾à¦¶",
  "3192": " à¦à¦ à¦¨ à¦à¦°",
  "3193": " à¦¨à¦¿à¦¯à¦¼à¦®",
  "3194": "à§à¦à§ à¦à¦¬à¦",
  "3195": " à¦à¦§à¦¿à¦",
  "3196": " à¦ªà¦¡à¦¼",
  "3197": "Ch",
  "3198": "ing",
  "3199": "..",
  "3200": "à§à¦¨à§à¦¦",
  "3201": " à¦ªà§à¦°à¦¾à¦à§à¦¤à¦¿à¦",
  "3202": "à§à¦°à§à¦ª",
  "3203": "à¦°à§à¦­à¦¿à¦à§à¦·",
  "3204": " à¦à¦¤",
  "3205": " à§¨à§¦à§§à§®",
  "3206": "à¦¾à¦¥à¦¾à¦ª",
  "3207": "à¦¾à¦¥à¦¾à¦ªà¦¿à¦à§",
  "3208": "à¦°à¦¿à¦¦",
  "3209": "à¦¿à¦° à¦",
  "3210": " à¦¸à§à¦¤",
  "3211": "à¦¶à¦¾à¦¸à¦¨à¦¿à¦",
  "3212": "à¦¿, à¦¬",
  "3213": "à§ à¦¨à¦¤à§à¦¨",
  "3214": "à¥¤ à§§à§®",
  "3215": " à¦°à§à¦®à¦¾à¦¨",
  "3216": "à¦¾ à¦à¦",
  "3217": " à¦²à¦¾à¦­",
  "3218": "à¦¾à¦° à¦à¦",
  "3219": "à¦ªà¦¨à¦¿à¦¬à§à¦¶à¦¿à¦",
  "3220": "à§ à¦§à§à¦°",
  "3221": "à¦¿à¦ªà§à¦²à¦¬",
  "3222": " à¦®à¦¾à¦°",
  "3223": "à§à¦¨à¦¾à¦°à§à¦²",
  "3224": " à¦à¦¯à¦¼",
  "3225": "¦à§à¦",
  "3226": " à¦ªà¦¾à¦²à¦¨ à¦à¦°",
  "3227": " à¦¬à¦à¦° à¦¬",
  "3228": "à¦¾à¦°à¦",
  "3229": "à§à¦ªà§à¦¤",
  "3230": "à¦¿à¦à¦¿ à¦à¦°à§à¦ªà§à¦°à§à¦¶à¦¨",
  "3231": ".à§©",
  "3232": "à¦¸à§à¦¥à¦²",
  "3233": "à§à¦¨à§à¦¶à¦¿à¦¯à¦¼",
  "3234": "à¦°à§à¦§à¦®à¦¾à¦¨",
  "3235": "© à¦¸à¦¾à¦²",
  "3236": "à¦¾à¦¤à§à¦°à§",
  "3237": "à¦°à¦¾à¦¹",
  "3238": "à§ à§«",
  "3239": "à¦¾à¦° (",
  "3240": "à§à¦·à§à¦ à¦¾à¦¨",
  "3241": "à§ à¦¬à¦¿à¦¦",
  "3242": " à¦²à¦¾à¦­ à¦à¦°",
  "3243": "à¦¿ à¦¯",
  "3244": "à¦²à¦¾à¦à¦¨",
  "3245": "¶à¦¿à¦²à§à¦ª",
  "3246": "à§à¦¡à¦¿à¦",
  "3247": "à¦¦à§à¦²",
  "3248": "à¦¾à¦¨à§à¦¦",
  "3249": " à¦à¦à§à¦à¦²\n",
  "3250": " à¦¦à§à¦¬à§",
  "3251": "à§à¦ à¦¬",
  "3252": "à§ à¦ªà§à¦à¦",
  "3253": "à¦¿à¦¨à§à¦§à§",
  "3254": " à¦ à¦",
  "3255": "is",
  "3256": "o ",
  "3257": "The ",
  "3258": "à§à¦",
  "3259": "à§ à¦¯à¦¾à¦¨",
  "3260": "à¦¾ à¦¦à§à¦",
  "3261": "à¦¸à§",
  "3262": "à§à¦¯à¦¾à¦à¦¿à¦",
  "3263": "à§à¦°à¦¸à§à¦",
  "3264": "à§à¦² à¦¹à¦",
  "3265": "à¦¨à§à¦¸",
  "3266": "à§à¦¡à¦¿à¦¯à¦¼à¦¾à¦®",
  "3267": "à¦¿à¦à§à¦¡",
  "3268": "à¦§à¦¿à¦ª",
  "3269": "à¦§à¦¿à¦ªà¦¤à§à¦¯",
  "3270": "ch",
  "3271": "à¦¾à¦°à¦²à§à¦¯à¦¾à¦¨à§à¦¡",
  "3272": " (à§§à§¯à§¦",
  "3273": " à¦¹à¦¯à¦¼à§ à¦¥à¦¾à¦",
  "3274": " à¦à§à¦¨à¦¿à¦¸",
  "3275": " à¦ªà§à¦°à¦à§à¦°à¦¿à¦¯à¦¼",
  "3276": " à¦®à¦¾à¦à¦²)",
  "3277": "à¦à§à¦·à¦ªà¦¥",
  "3278": " à¦à¦¿.à¦®à¦¿.",
  "3279": " à¦®à§à¦à§à¦¸à¦¿à¦à§",
  "3280": "à¦¾, à¦¤",
  "3281": "à¦¾ à¦¦à¦à§à¦·à¦¿à¦£",
  "3282": "à¥¤ à¦¬à¦¾à¦à¦²",
  "3283": "à§à¦° à¦¬",
  "3284": " à¦¸à¦¬à¦à§à¦¯à¦¼",
  "3285": "à¦¾à¦¹à¦¾à¦°",
  "3286": "à§ à¦ªà§à¦°à¦­à¦¾à¦¬",
  "3287": "à¦° à¦à¦¨",
  "3288": " à¦à¦¬à¦ à¦",
  "3289": " à¦à§à¦¬",
  "3290": "à¦¾à¦° à¦ªà§à¦°à¦§à¦¾à¦¨",
  "3291": "à¦¾â",
  "3292": " à¦¦à§à¦¯",
  "3293": ", à¦¯à§à¦à¦¾à¦¨",
  "3294": "à¦à¦²à¦¿à¦¤",
  "3295": "à§à¦° à¦¬à¦¾à¦à¦°",
  "3296": "à¦§à§à¦¯à¦ªà§à¦°",
  "3297": "à§à¦° à¦ªà§à¦°",
  "3298": " à¦ªà§à¦°à¦­à§à¦¤",
  "3299": " à¦¶à§à¦²",
  "3300": " à¦¶à¦¾à¦¨à§à¦¤",
  "3301": " à¦­à¦¿à¦¨à§à¦¨",
  "3302": "à¦à¦ª",
  "3303": "à¦¿à¦à¦²à§à¦ª",
  "3304": " à¦¸à¦¾à¦§à¦¾à¦°à¦£",
  "3305": "à¦¾à¦¯à¦¼ à¦ªà§à¦°",
  "3306": "à¦¬à¦°à§à¦£",
  "3307": "à§à¦¨à¥¤ à¦¸",
  "3308": "à§à¦¬à¦¾à¦¸",
  "3309": " à¦à¦­à§à¦°",
  "3310": " à¦ªà¦¦à§à¦§à¦¤",
  "3311": "à¦¾à¦¯à¦¼ à¦¤",
  "3312": "à¦¿ à¦à¦",
  "3313": "à¦¿à¦° à¦",
  "3314": "à¦¾à¦¤à§ à¦¬",
  "3315": "à§à¦¹à¦¤à§à¦¤à¦° à¦",
  "3316": "à¥¤ à¦­",
  "3317": "à§à¦¨à§à¦¦à§à¦° à¦à¦°",
  "3318": " (à§§à§¯à§ª",
  "3319": "à§ à§§à§¯à§­",
  "3320": "à¦¾à¦à¦¾à¦°",
  "3321": "à§à¦¶à¦¾à¦",
  "3322": "à¦à¦¿à¦¤",
  "3323": "à¦¸à§à¦®",
  "3324": "à¦¿ à¦",
  "3325": " à¦à¦à¦¾à¦¨",
  "3326": "à¦¿à¦à§à¦²à§",
  "3327": " à¦à¦à§à¦",
  "3328": "à¦à§à¦¤à¦¿à¦¶à¦¾à¦²à§",
  "3329": "à¦¤à¦¿à¦¹à¦¾à¦¸à¦¿à¦",
  "3330": " à¦ à¦ª",
  "3331": ", à¦",
  "3332": "à§ à¦®à§à¦¸à¦²à¦¿à¦®",
  "3333": "à§ à¦¶à§à¦°à§ à¦à¦°",
  "3334": "à¦®à§à¦¬à§",
  "3335": "à¦¾à¦®à§à¦®",
  "3336": "à¦°à¦¾à¦¸à¦°",
  "3337": " à¦¦à¦«",
  "3338": "à§à¦°à¦¯à¦¼",
  "3339": "à¦¾à¦¬à§à¦",
  "3340": " à§¨à§¬",
  "3341": "à¦­à¦¿à¦¤à§à¦¤à¦¿à¦",
  "3342": "¯à¦¶",
  "3343": "à§à¦° à¦à¦¡à¦¼",
  "3344": "à¦¨à¦¤à§à¦¬",
  "3345": " à§¨à§ª",
  "3346": "à¦¿à¦¨à¦¿à¦¯à¦¼",
  "3347": "à§à¦°à¦®à¦¬",
  "3348": " à§¨à§¦à§§à§¦",
  "3349": "à§à¦¦à¦¨",
  "3350": "à§à¦·à§à¦",
  "3351": ", à¦¡",
  "3352": "à¦¾à¦¶à¦¨à¦¾à¦²",
  "3353": "à§à¦¯à¦¾à¦ªà¦à¦­à¦¾à¦¬",
  "3354": "à¦¿à¦à¦¨",
  "3355": "à§§à§¯à§¯à§",
  "3356": "à§à¥¤ à¦",
  "3357": "à§à¦§à§à¦®à¦¾à¦¤à§à¦° à¦",
  "3358": "à¦¿à¦¦à§à¦§à¦¾à¦¨à§à¦¤ à¦",
  "3359": "à¦¿à¦°à¦¤",
  "3360": "à¦¾à¦¡à¦¼",
  "3361": "à¦°à§",
  "3362": "à¦¾à¦®à¦¾à¦²",
  "3363": "à§à¥¤ à¦",
  "3364": " à¦­à§à¦à§à¦²à¦¿à¦",
  "3365": "à§§à§­",
  "3366": "à¦¾à¦§à§à¦²",
  "3367": "à§à¦¡",
  "3368": " à¦à¦à¦",
  "3369": "à¦¾à¦° à¦ªà§à¦°à¦¤",
  "3370": "à§à¦¯à¦¾à¦à§à¦¯",
  "3371": "à§, à¦",
  "3372": " à¦²à¦¾à¦à¦¨",
  "3373": "à¦¾à¦à§à¦¤à¦¨",
  "3374": "à§à¦·à¦£",
  "3375": "à§à¦²à¦¾à¦¬",
  "3376": "à¦¿à¦° à¦¨",
  "3377": " à¦¡à¦¿à¦à§à¦°",
  "3378": "à¦¬à¦¿à¦à§à¦à¦¾à¦¨",
  "3379": "à¦§à§à¦¯à¦¯à¦¼à¦¨",
  "3380": "à§à¦¯à¦¼ à¦ªà§à¦°",
  "3381": "à¦¦à¦¾à¦°",
  "3382": " à¦®à¦¿à¦¨",
  "3383": "à¦¿ à¦¦à§à¦¶",
  "3384": "à¦à§à¦à¦¾à¦¯à¦¼",
  "3385": "à¦à¦°à§à¦",
  "3386": "à¦¾à¦°à§à¦¶à¦¨à¦¿à¦",
  "3387": "à¦¾à¦¨à§à¦¤à§à¦¯à¦¼",
  "3388": " à¦¬à¦°à¦¾à¦¬",
  "3389": "à¦¶à§à¦¨à¦¿à¦¯à¦¼",
  "3390": "à§ à¦¦à¦¾à¦¬",
  "3391": "à¦¾à¦°à§à¦¬à¦­à§à¦®",
  "3392": "à§à¦¨",
  "3393": "à¦¾à¦° à¦à¦¤à¦¿à¦¹à¦¾à¦¸",
  "3394": "¹à¦¿à¦¸à§à¦¬",
  "3395": " à¦à¦ªà¦®à¦¹à¦¾à¦¦à§à¦¶",
  "3396": " à¦¬à¦¾à¦à¦²à¦¾ à¦¸à¦¾à¦¹à¦¿à¦¤à§à¦¯",
  "3397": "à§à¦° à¦¸",
  "3398": "à§à¦° à¦®à¦¾à¦¨",
  "3399": "à§ à¦¬à¦¸à¦¬à¦¾à¦¸",
  "3400": "à¦¾ à¦¬à¦²à¦¾ à¦¹à¦¯à¦¼",
  "3401": "à¦§à§à¦¯à¦ªà§à¦°à¦¾à¦à§à¦¯",
  "3402": "à§à¦° à¦à¦°",
  "3403": "à§à¦°à§à¦²à¦à§à¦",
  "3404": "à¦¿à¦²à§à¦",
  "3405": "ri",
  "3406": "à¦¨à¦¾ à¦à¦°à¦¾ à¦¹à¦¯à¦¼",
  "3407": " à¦à¦§à§à¦¨à¦¿à¦",
  "3408": "à¦¾à¦¤à§à¦¯",
  "3409": "à§à¦à¦¿à¦¤à§à¦°",
  "3410": "à§ à¦®à§à¦",
  "3411": "à¦à¦¾à¦¯à¦¼",
  "3412": "à¦¸à¦à§à¦",
  "3413": "à¦¿à¦°à§à¦ª",
  "3414": " à¦¦à§à¦¬",
  "3415": "à§à¦¤",
  "3416": "à¦¦à§à¦­à¦¬",
  "3417": " à¦à¦à¦à¦¿",
  "3418": "à¦à§à¦²à¦¿ à¦¹à¦²",
  "3419": " à§¨à§®",
  "3420": "à¦°à¦£ à¦à¦°",
  "3421": "à¦¾ à¦¹à¦à§à¦",
  "3422": " à¦à¦­à¦¯à¦¼",
  "3423": ", \"",
  "3424": " à§ªà§¦",
  "3425": "à¥¤\nà¦",
  "3426": "ra",
  "3427": ", à¦¦à¦à§à¦·à¦¿à¦£",
  "3428": " à¦à¦¯à¦¼",
  "3429": "à¦¿à¦¶à§à¦²",
  "3430": " à¦à¦¨à§à¦¨à¦¤",
  "3431": "à¦¶à§à¦°à§à¦¤",
  "3432": "à¦¾ à¦ à¦¬",
  "3433": "à§à¦²à¦¤à¦¾à¦¨",
  "3434": " à¦ªà§à¦°à¦¾à¦£",
  "3435": " à¦¬à¦¾à¦¡à¦¼",
  "3436": "à§à¦°à§à¦¤à§à¦¬à¦ªà§à¦°à§à¦£",
  "3437": " à¦à¦à§à¦°à¦®",
  "3438": "à§ à¦¬à¦¿à¦­à¦à§à¦¤",
  "3439": " à¦¦à¦à¦²",
  "3440": " à¦¦à§à¦°",
  "3441": "à¦¾à¦¬à¦²à¦®à§à¦¬à§",
  "3442": " à¦®à§à¦¹",
  "3443": " à¦¢à¦¾à¦à¦¾à¦¯à¦¼",
  "3444": " à¦ªà¦°à¦¿à¦¬à¦°à§à¦¤",
  "3445": "à§ à¦à¦à¦¯à¦¼à¦¾à¦®à§ à¦²à§à¦",
  "3446": "à¦¾ à¦à¦¾à¦¨",
  "3447": "à¦¾ à¦à¦¾à¦²",
  "3448": " à¦¨à¦¿à¦°",
  "3449": "à¦¯à¦¨à§à¦¤à§à¦°",
  "3450": "à¦¤à§à¦¤à§à¦¬à¦¾à¦¬à¦§",
  "3451": "à¦¤à§à¦¤à§à¦¬à¦¾à¦¬à¦§à¦¾à¦¯à¦¼à¦",
  "3452": "à¦¾à¦à¦",
  "3453": " à¦à¦¿à¦²à§à¦®à¦¿à¦",
  "3454": " à¦¨à¦¿à¦°à§à¦¬à¦¾à¦",
  "3455": " à§¦",
  "3456": "à§à¦°à¦®à¦¬à¦°à§à¦§à¦®à¦¾à¦¨",
  "3457": " à¦¬à§à¦¦à§à¦§à¦¿ à¦ª",
  "3458": "à¦¦à¦¸",
  "3459": " à¦¬à¦¿à¦¸à§à¦¤à¦¾à¦° à¦à¦°",
  "3460": "à¦­à§à¦°",
  "3461": "à§ à¦à¦à¦¶",
  "3462": "à¦°à§à¦£",
  "3463": "à¦¾à¦¹à¦²",
  "3464": " à¦à¦°à§à¦¤à§à¦ªà¦à§à¦·",
  "3465": "-à§¨à§¦à§§à§",
  "3466": "à§à¦°à§à¦¨",
  "3467": " à¦à¦¿à¦¡à¦¿à¦ª",
  "3468": " à¦à¦¾à¦ªà¦¾à¦¨",
  "3469": "à§âà¦°",
  "3470": "à§à¦¯à§à¦",
  "3471": "à¦à¦¿à¦²",
  "3472": " à¦ à¦¶",
  "3473": "à¦°à¦ à¦¦à§à¦à§à¦¨",
  "3474": " à¦°à¦à§à¦·",
  "3475": "à§à¦° à¦¯",
  "3476": " à¦à¦ªà¦¨à§à¦¯à¦¾à¦¸",
  "3477": "à§ à¦¤à¦¾à¦°",
  "3478": "à¦¾ à¦ªà§à¦°à¦¥à¦®",
  "3479": "²à§à¦",
  "3480": " à¦ªà§à¦°à¦¸à§à¦à¦¾à¦°\n",
  "3481": "à¦à¦°à¦£ à¦à¦°à¦¾ à¦¹à¦¯à¦¼",
  "3482": "à¦à§à¦®",
  "3483": " à¦à¦¨à¦¸à§à¦à¦¿à¦à¦¿à¦à¦",
  "3484": " à¦¤à§à¦°à¦¿ à¦à¦°",
  "3485": "à¦¿à¦·à§à¦à¦¾à¦°",
  "3486": "à¦¾à¦ªà§à¦à§à¦·",
  "3487": "à§à¦¡à¦¿à¦à§à¦²",
  "3488": "à¦²à¦¿à¦®à§à¦ªà¦¿à¦",
  "3489": "à§à¦à§à¦²",
  "3490": "à¦®à§à¦ªà¦¾à¦¯à¦¼",
  "3491": "à§à¦­",
  "3492": " à¦à¦·à§à¦£",
  "3493": " à¦¬à¦¾à¦¯à¦¼",
  "3494": "à¦¾à¦°à§à¦¶à§à¦¬",
  "3495": "­à§à¦®",
  "3496": "¢à¦¾à¦²",
  "3497": "à¦¤à¦¿à¦à§à¦°à¦® à¦à¦°",
  "3498": "à§ à¦ªà§à¦¥à¦¿à¦¬à§",
  "3499": "):",
  "3500": "à§à¦¯à¦¼ à¦¸à§à¦°à§à¦¤",
  "3501": "à¦¶à¦¿à¦°",
  "3502": ",à§¦à§¦à§¦ à¦¬à¦°à§à¦à¦à¦¿à¦®à¦¿\n",
  "3503": "à¦¿à¦¬à¦¾à¦°",
  "3504": "à¦°à¦à¦¾à¦°à¦¿ à¦­à¦¾à¦·",
  "3505": "à¦¾à¦­à¦¾à¦·à§",
  "3506": "à¦¾à¦ªà¦¦",
  "3507": "à§à¦° à¦¬à¦¿à¦à¦¾à¦¶",
  "3508": "à§ à¦à§à¦°à§à¦¤à§à¦¬à¦ªà§à¦°à§à¦£",
  "3509": "à§¨ à¦à§à¦°à¦¿à¦·à§à¦à¦¾à¦¬à§à¦¦",
  "3510": "à§à¦¥à¦¾à¦ªà¦¨ à¦à¦°",
  "3511": "à§à¦° à¦¬à¦¾à¦à¦²",
  "3512": "à¦¿à¦¬à¦¸",
  "3513": "à¦à¦²",
  "3514": " à¦§à§à¦¬à¦¨",
  "3515": "à§, à¦¯à§à¦®à¦¨",
  "3516": "à¦à¦¶",
  "3517": "à¦à¦¿à¦° à¦¸",
  "3518": ", à¦à¦",
  "3519": "à¦°à§à¦à¦¤",
  "3520": "à¦¿à¦ªà§à¦°à§à¦£",
  "3521": " à¦®à§à¦²",
  "3522": "à¦¸à§à¦®",
  "3523": "à¦¨à§à¦®à¦¾à¦¨à¦¿à¦",
  "3524": "à¦¦à§à¦¯à§à¦",
  "3525": " à¦¨à¦­",
  "3526": "à§à¦° à¦à¦§à¦¿à¦à¦¾à¦à¦¶",
  "3527": "à§à¦° à¦à¦¾à¦¤à§à¦¯à¦¼",
  "3528": "à§à¦° à¦¡",
  "3529": "à¦¿à¦¨à¦¿à¦§",
  "3530": "à¦¿à¦à¦¤",
  "3531": "à¦¾ à¦¦à§à¦¶",
  "3532": "à¦®à§à¦",
  "3533": "à¦¾à¦",
  "3534": "à¦¾à¦¯à¦¼ à¦¸",
  "3535": "à¥¤ à¦«à¦²",
  "3536": " à¦¬à¦°à§à¦£",
  "3537": "à¦¿à¦° à¦à¦¨à§à¦¯",
  "3538": " à¦ªà§à¦°à¦¤à§à¦",
  "3539": " (à¦",
  "3540": "-à¦¸",
  "3541": "à§à¦¤ à¦à¦°",
  "3542": "à¦¾à¦¡à§à¦®",
  "3543": ".\n .\n ",
  "3544": "à¦¾à¦°à¦¾à¦¯à¦¼à¦£",
  "3545": "ent",
  "3546": "an ",
  "3547": ", à¦ªà§à¦°à§à¦¬",
  "3548": "à¥¤\nà¦®",
  "3549": " à¦à¦¯à¦¼à¦¤à¦¨",
  "3550": "à§à¦° à¦¦à§à¦¶",
  "3551": "à§à¦° à¦®à¦¾à¦¨à§à¦·",
  "3552": "à¦¬à§à¦¦à§à¦§",
  "3553": "à¦¾ à¦¬à§à¦¦à§à¦§",
  "3554": "à¦¿à¦­à¦¾à¦·",
  "3555": " à¦®à¦¿à¦",
  "3556": "à¦¾à¦à§à¦¨à¦¤à¦®",
  "3557": "à§à¦·à§à¦ à§",
  "3558": "à§ à¦ªà§à¦°",
  "3559": " à¦ªà§à¦°à¦®à¦¾à¦£",
  "3560": "à§, à¦",
  "3561": "à§à¦° à¦à¦",
  "3562": "à¦¸à¦²à¦¾à¦®",
  "3563": "à§à¦° à¦§à¦¾à¦°à¦£",
  "3564": "à¦¿ à¦¨à¦¾à¦®",
  "3565": " à§§à§¯à§§à§",
  "3566": "à¦¾ à¦à¦",
  "3567": "à§à¦¤à§à¦¯à§",
  "3568": "à¦¶à§ à¦®à¦¾à¦°à§à¦",
  "3569": "à§à¦¨à¦¾à¦¬à¦¾à¦¹à¦¿à¦¨à§à¦° à¦",
  "3570": "à§à¦°à¦",
  "3571": "à¦®à¦¨à§à¦¤à§à¦°",
  "3572": "à¦¾à¦¯à¦¼à¦¿à¦¤à§à¦¬ à¦ªà¦¾à¦²à¦¨ à¦à¦°",
  "3573": " à¦¤à¦¾à¦°à¦¿à¦",
  "3574": "-à§§à§¯à§¯à§",
  "3575": " à¦à¦¾à¦¤à§à¦¯à¦¼ à¦¸à¦à¦¸à¦¦",
  "3576": "à¦à§à¦·",
  "3577": " à§¨à§¦à§¨à§¦",
  "3578": "à¥¤ à¦à¦à¦¾à¦¨",
  "3579": "à§à¦° à¦®à¦§à§à¦¯à§ à¦°à¦¯à¦¼à§à¦",
  "3580": "à§à¦° à¦à¦²",
  "3581": " à¦¯à§à¦à¦¾à¦¨",
  "3582": "à¦à¦¾à¦£à§à¦¡",
  "3583": "à¦¾à¦¦à§",
  "3584": " à¦¨à§à¦ªà¦¾à¦²",
  "3585": " à¦¬à¦¹",
  "3586": "à§ à§§à§«",
  "3587": "à¦°à¦¬à¦°à¦¾à¦¹",
  "3588": "à§à¦¥à¦¾à¦¯à¦¼à§",
  "3589": "à¦¿à¦­à¦¿à¦¶à¦¨",
  "3590": " à¦ à¦",
  "3591": "à¦¨à§à¦¤à¦°à§à¦à¦¾à¦¤à¦¿à¦ à¦¬",
  "3592": "à¦¾à¦° à¦",
  "3593": "¨ à¦¸à¦¾à¦²",
  "3594": " à¦à¦",
  "3595": " à¦°à¦¾à¦¶à¦¿à¦¯à¦¼",
  "3596": "à¦à¦²à§à¦¯à¦¾à¦¨à§à¦¡",
  "3597": " à¦à¦à¦¿ à¦",
  "3598": "-à¦¤",
  "3599": " à¦ à¦à¦¨à§à¦¯à¦¾à¦¨à§à¦¯",
  "3600": " à¦¬à¦¾ à¦¬",
  "3601": "à¥¤ à¦¬à¦°à§à¦¤à¦®à¦¾à¦¨",
  "3602": "à¦¾à¦¤à¦¾à¦¯à¦¼",
  "3603": " à¦¸à¦¡à¦¼à¦",
  "3604": "à§à¦¯à¦¼à¦¦",
  "3605": "à¦°à§à¦¯à¦à¦¨",
  "3606": "à¥¤\nà¦ª",
  "3607": " à¦«à§à¦¡à¦¾à¦°à§à¦¶à¦¨",
  "3608": "à§à¦° à¦¤à¦¾à¦²à¦¿à¦à¦¾\n",
  "3609": " à¦°à¦¾à¦·à§à¦à§à¦°\n",
  "3610": "à§à¦°à§à¦¤",
  "3611": "à¥¤ à¦¤à¦¿à¦¨à¦¿ à¦",
  "3612": "à§à¦¬",
  "3613": " à¦à¦¾à¦¨",
  "3614": "à§ à¦à¦¿à¦¯à¦¼",
  "3615": "ed ",
  "3616": "à§à¦° à¦à¦ª",
  "3617": "à¦¾ à¦¤à¦¾à¦¦",
  "3618": "¨à¦¿à¦¯à¦¼",
  "3619": "à§ à¦§à¦°",
  "3620": "à§à¦¯à¦¾à¦¤",
  "3621": " à¦¸à§à¦ªà§à¦",
  "3622": "à¥¤\nà¦ªà§à¦°",
  "3623": "à¦¾ à¦ªà§à¦°à§à¦¬",
  "3624": "à¦ªà¦¨à§à¦¥",
  "3625": " à¦à¦¹à¦®à§à¦¦",
  "3626": "à¦ªà§à¦°à§à¦¸",
  "3627": " à¦à¦¨à§à¦¤à¦°à§à¦",
  "3628": "à§à¦°à¦¨à§à¦¥",
  "3629": "à§à¦¯à¦¾à¦®à§à¦ªà¦¿à¦¯à¦¼à¦¨",
  "3630": "ed",
  "3631": "à¦¾à¦°à§à¦­à¦¿à¦¸",
  "3632": "à§à¦·à§à¦ ",
  "3633": "à¦°à§à¦¬à¦¤",
  "3634": "à¦¾à¦à¦¯à¦¼à¦¾à¦°à§à¦¦",
  "3635": " à¦¸à¦®à§à¦®à§à¦²à¦¨",
  "3636": " à¦à¦¬à¦ à¦à¦¨à§à¦¯à¦¾à¦¨à§à¦¯",
  "3637": " à¦®à¦¾à¦²",
  "3638": " à¦à¦¾à¦ª",
  "3639": "à§à¦§à§à¦°à§",
  "3640": " à¦ªà§à¦²",
  "3641": "à¦¿à¦à¦¸",
  "3642": "à¦¿ à¦­à¦¾à¦·à¦¾à¦¯à¦¼",
  "3643": "à¦à¦",
  "3644": "à¦¿à¦¶à§à¦°",
  "3645": " à¦à¦¨à§à¦¦à§à¦°",
  "3646": "à§à¦¯à§à¦¤",
  "3647": "à¦¨à§à¦§à¦¾à¦¨",
  "3648": "à¦ªà§à¦·à§à¦ ",
  "3649": "à§ à¦à¦²",
  "3650": " à¦®à§à¦",
  "3651": ", à¦à¦¤à§à¦¤à¦° à¦",
  "3652": "à¦¡à§à¦²",
  "3653": "à¥¤ à¦à¦à§à¦à¦à§à¦°à¦¾à¦®",
  "3654": "à§à¥¤ \n",
  "3655": "à¦¾à¦°à§à¦¸à¦¿à¦",
  "3656": "®à¦¹à¦¾à¦¦à§à¦¶",
  "3657": " à¦à§à¦°à¦¿à¦¸à§à¦à¦ªà§à¦°à§à¦¬à¦¾à¦¬à§à¦¦",
  "3658": "à§ à¦®à¦§à§à¦¯",
  "3659": "à§à¦°à¦¿à¦",
  "3660": "à¦¿à¦¯à¦¼à¦¾ (",
  "3661": " à¦ªà§à¦¥à¦¿à¦¬à§",
  "3662": "à§à¦¥à¦¿à¦¬à§à¦",
  "3663": " à¦­à§à¦¤à§à¦¬à¦",
  "3664": " à¦¤à¦¾à¦ª",
  "3665": "bgcolor=a",
  "3666": "bgcolor=af",
  "3667": "bgcolor=afee",
  "3668": "bgcolor=afeeee",
  "3669": "bgcolor=afeeee|",
  "3670": "à¦°à¦¾\n|",
  "3671": " à¦ªà¦°à¦¿à¦à¦¿à¦¤",
  "3672": "à¦à¦à¦°à§à¦ªà§à¦¯à¦¼",
  "3673": "à§à¦¸à¦¾à¦°",
  "3674": "à¥¤ à¦",
  "3675": "à§ à¦¬à¦¾à¦à¦²à¦¾ à¦­à¦¾à¦·",
  "3676": "à¦¤à¦¾à¦",
  "3677": "à§§à§¯à§ª",
  "3678": "à§à¦à§à¥¤",
  "3679": "à¦¾à¦¬à¦¿à¦¦",
  "3680": " à¦¤à¦à¦¨",
  "3681": "à¦¾ à¦¦à§à¦¬à¦¾à¦°",
  "3682": "à¦¤à§à¦¯à¦¨à§à¦¤ à¦",
  "3683": "à§à¦¤à¦°à§à¦à¦¤",
  "3684": "à§ à§§à§®",
  "3685": "à¦¤à§ à¦¹à¦¯à¦¼",
  "3686": "à¦¿à¦¤à§à¦¤à¦¿ à¦à¦°",
  "3687": "à¦¾, à¦",
  "3688": "à§ à¦ªà§à¦°à§à¦¬ à¦ªà¦¾à¦à¦¿à¦¸à§à¦¤à¦¾à¦¨",
  "3689": "à¥¤ à§§à§¯à§¯à§",
  "3690": "à§ à¦à¦ à¦¿à¦¤",
  "3691": "à¦¾,",
  "3692": "à¦¿à¦²à§à¦²",
  "3693": "à¥¤ à§¨à§¦à§§à§",
  "3694": "à§à¦°à¦¨à¦¾à¦¥",
  "3695": "à§à¦¯à¦",
  "3696": "à§à¦° à¦à¦¿à¦à§",
  "3697": "¢à¦¼",
  "3698": "à¦à¦²à§à¦ª",
  "3699": " à¦à¦°à¦¤à§ à¦ªà¦¾à¦°",
  "3700": " à¦¹à¦¤à§ à¦ªà¦¾à¦°",
  "3701": "   ",
  "3702": "à¦à¦¾à¦°",
  "3703": "à¦ à¦¿à¦¨",
  "3704": "à¦¿à¦¤ à¦¹à¦¯à¦¼à§à¦à§à¥¤ à¦",
  "3705": "à¦¾à¦¤à§à¦®à¦",
  "3706": "à¦¾à¦¤à¦¨",
  "3707": "à¦à¦¾à¦",
  "3708": "à§ à¦¤à§à¦²",
  "3709": "à¦° à¦",
  "3710": "à¥¤ à§§à§¯à§ª",
  "3711": ") à¦¨à¦¾à¦®",
  "3712": "à¥¤ à¦¦à§à¦¶",
  "3713": "à¦¾à¦° à¦ªà§à¦°à¦¾à¦¯à¦¼",
  "3714": ",à§ª",
  "3715": "à§à¦à§ à¦¯",
  "3716": " à§¬à§¦",
  "3717": "à§à¦¸à§à¦®",
  "3718": "à§à¦°à§à¦£à¦¿à¦",
  "3719": "à§à¦°à§à¦£à¦¿à¦à¦¡à¦¼",
  "3720": "à§à¦° à¦à¦à§à¦",
  "3721": "à¦à¦¯à¦¼à§à¦²",
  "3722": "à§à¦ªà¦¤à§à¦¤à¦¿ \n",
  "3723": "à¦¾ à¦à¦",
  "3724": "ªà§à¦°à¦¤",
  "3725": "à¦¹à¦¾à¦¨",
  "3726": "à§ à¦à¦à¦¿ à¦",
  "3727": " à¦­à§à¦à§à¦²",
  "3728": "à¦¾à¦° à¦à¦à¦à¦¿ à¦",
  "3729": " à¦¨à¦¿à¦¦à¦°à§à¦¶à¦¨",
  "3730": " à¦à¦¾à¦¹",
  "3731": " à¦¹à¦¯à¦¼à§ à¦¯à¦¾à¦¯à¦¼",
  "3732": "à¥¤ à§§à§¯à§¬",
  "3733": " à¦®à§à¦à§à¦¤",
  "3734": "à¦¦à¦¾à¦¸",
  "3735": ") \n",
  "3736": "à¦¿à¦à¦¨",
  "3737": "à¦¾à¦®à§à¦®à¦¦",
  "3738": "à¦°à¦ªà¦°",
  "3739": "à¦°à§à¦¬à§à¦à§à¦",
  "3740": "à§à¦°à§à¦",
  "3741": "à§à¦°à§à¦à§à¦¯",
  "3742": "à¦ªà¦à§à¦²",
  "3743": "à¥¤ à¦¸à¦®",
  "3744": " à¦à¦²à¦¾à¦à¦¾à¦¯à¦¼",
  "3745": "à¦ªà§à¦°à¦§à¦¾à¦¨",
  "3746": "à¦¦à§à¦¶à¦¿à¦",
  "3747": " à¦®à§à¦",
  "3748": "à¦¾à¦° à¦¦à¦¿à¦",
  "3749": " à¦à¦°à§à¦à¦¨",
  "3750": " à¦ªà§à¦°à¦¤à¦¿à¦·à§à¦ à¦¾à¦¨",
  "3751": "à¦à¦¨à§à¦®",
  "3752": "à¦¾ à¦ªà¦¾à¦²à¦¨ à¦à¦°",
  "3753": " à¦ªà¦¾à¦à¦",
  "3754": "à¦¿à¦¬à¦¾à¦¹",
  "3755": "à¦¾à¦° à¦à§à¦·à§à¦¤à§à¦°",
  "3756": "à§à¦¯à¦à§à¦·",
  "3757": " à¦ªà§à¦°à¦à¦¾à¦¤à¦¨à§à¦¤à§à¦°",
  "3758": "à§à¦¸à§à¦",
  "3759": "à§à¦¯à¦¾à¦¬",
  "3760": "à§à¦¬à¦¿à¦§",
  "3761": "à§à¦°à¦®à¦¿à¦",
  "3762": "à§à¦¯à¦¾à¦à§à¦¸",
  "3763": "à¦¾à¦¤ à¦¬",
  "3764": "à¦¾à¦à¦²",
  "3765": "à§ à¦¨à¦¾à¦®",
  "3766": "à¦¿à¦®à¦¾à¦¨à¦¬à¦¨à§à¦¦à¦°",
  "3767": "à¦¿à¦¯à¦¼à¦¾à¦²",
  "3768": "à¦¬à¦¾à¦¨",
  "3769": " à¦à¦ªà¦¨à¦¿à¦¬à§à¦¶",
  "3770": "à§à¦¨à¥¤ à¦¤à¦¿à¦¨à¦¿ à¦",
  "3771": "à§ à¦à¦¬à¦¸à§à¦¥à¦¾à¦¨",
  "3772": " à¦à¦¨",
  "3773": "à¦§à§à¦¯à¦¬à¦°à§à¦¤",
  "3774": "ci",
  "3775": "s of ",
  "3776": " à¦ªà¦¾à¦¶",
  "3777": "à¦¾à¦®à¦°à¦¿à¦",
  "3778": " à¦¬à¦¨à§à¦¦",
  "3779": " à¦°à¦¾à¦¨",
  "3780": "à§§à§¨",
  "3781": "à¦à§à¦¬",
  "3782": "à¦«à¦",
  "3783": " à¦à¦¨à§à¦¡",
  "3784": "à§à¦°à§à¦·à§à¦ ",
  "3785": "à¦­à¦¾à¦",
  "3786": "à¦¾à¦à¦¾à¦°",
  "3787": " à¦ªà§à¦²à¦¿à¦¶",
  "3788": "à§à¦¤ à¦¬",
  "3789": "à§à¦¸à¦¬",
  "3790": " à¦ªà¦¾à¦°",
  "3791": "à¦à§à¦°à¦¸",
  "3792": "à¦¹à§à¦¦",
  "3793": " à¦à¦¬à¦ à¦",
  "3794": "\n à¦®",
  "3795": " à¦¨à¦¿à¦°à§à¦¦à¦¿à¦·à§à¦",
  "3796": " (à§§à§¯à§«",
  "3797": "à¦¾ à¦à¦à¦à¦¿ à¦",
  "3798": "à§à¦¸à¦ªà§à¦°à§à¦¸",
  "3799": "à§à¦°à¦¦",
  "3800": " à¦¢à¦¾à¦à¦¾à¦° à¦ªà§à¦°à¦¥à¦®",
  "3801": "à¦° à¦¦à§à¦¬à¦¾à¦°",
  "3802": "à§à¦ªà§à¦·à§à¦ ",
  "3803": "à¦à¦²à¦¾à¦¨à§à¦à¦¿à¦ à¦®à¦¹à¦¾à¦¸à¦¾à¦à¦°",
  "3804": "à¥¤ à¦à¦¤à§à¦¤à¦° à¦",
  "3805": " à¦¯à§à¦à§à¦¤à¦°à¦¾à¦·à§à¦à§à¦° à¦",
  "3806": "ia",
  "3807": "à¦¨à§à¦ªà¦¾à¦²",
  "3808": "à¦à¦¤à§à¦¤à¦° à¦à¦®à§à¦°à¦¿à¦",
  "3809": "à§à¦°à§à¦£à¦¨",
  "3810": "à¦¾à¦à§à¦¯à¦¼",
  "3811": "!!à§¨à§¦à§¦",
  "3812": "à¦¾à¦¤à§à¦­à¦¾à¦·",
  "3813": "·à¦·à§à¦ ",
  "3814": ".à§¦",
  "3815": "à§ à¦à§à¦°",
  "3816": "à¦¾, à¦",
  "3817": "à¦à§à¦à§à¦ªà¦¾à¦§à§à¦¯à¦¾à¦¯à¦¼",
  "3818": "à§à¦¥à¦¾à¦¨à§à¦¯à¦¼",
  "3819": " à¦à¦ªà¦­à¦¾à¦·",
  "3820": " à¦à¦ à¦¿à¦¤ à¦¹à¦¯à¦¼",
  "3821": "à¦¾ à¦à¦°à§à¦¨",
  "3822": "§à§à¦¬à¦¨",
  "3823": " à¦à¦¸",
  "3824": "à¦¾ à¦¹à¦¤",
  "3825": "à¥¤ à§§à§¯à§«",
  "3826": "à§¦-à¦à¦° à¦¦à¦¶à¦",
  "3827": "à¦¿, à¦®",
  "3828": " à¦à¦°à§à¦à§à¥¤ à¦",
  "3829": "à¦° à¦®à¦¾à¦¸",
  "3830": "à§ à¦à§à¦°à¦¹",
  "3831": "à¦¿à¦à¦¨",
  "3832": " à¦ à¦¾à¦",
  "3833": " à¦®à¦¨à§ à¦à¦°",
  "3834": " à¦¥à§à¦à§ à¦",
  "3835": " à¦­à¦¾à¦·à¦¾à¦¤",
  "3836": ", à¦ªà¦¶à§à¦à¦¿à¦®",
  "3837": "à¦¾à¦°à¦¿à¦¯à¦¼",
  "3838": "à§à¦° à¦¸à§à¦®à¦¾à¦¨",
  "3839": " à¦à¦¿à¦à¦¬",
  "3840": " à¦à¦¿à¦¨à§à¦¤à§",
  "3841": "à§à¦¯à¦°à§à¦¥",
  "3842": "à§ à¦­à¦¾à¦·",
  "3843": "à¦¶ à¦¶à¦¤à¦¾à¦¬à§à¦¦à§à¦¤",
  "3844": "à¦¾ à¦",
  "3845": "à§ à¦à¦à¦à¦¿ à¦¬",
  "3846": "à§ à¦à¦à¦à¦¿ à¦¸",
  "3847": "à§ à¦¯à§à¦à§à¦¤ à¦",
  "3848": " à¦¬à§à¦¶à¦¿",
  "3849": "à¦¾, à¦",
  "3850": "iv",
  "3851": "ag",
  "3852": "am",
  "3853": "à¦¿à¦¬à¦¨à§à¦§",
  "3854": "à¦¾à¦° à¦¸à¦®",
  "3855": "à¦ªà§à¦¤à¦¾à¦¨",
  "3856": "à§ à¦à¦£à§à¦¯",
  "3857": "à§à¦¸à¦¿à¦¡",
  "3858": "à¦¾à¦à¦¨",
  "3859": "à¦¶à¦¸à§à¦¤",
  "3860": "¸à¦",
  "3861": "à§ à¦¸à¦à§à¦·à¦®",
  "3862": " à¦ªà§à¦°à¦¤à¦¿à¦¯à§à¦à¦¿à¦¤",
  "3863": "à¦à§à¦°à¦¹à¦£",
  "3864": "à¦®à¦¨à¦à¦¯à¦¼à§à¦²",
  "3865": "à¦®à¦¨à¦à¦¯à¦¼à§à¦²à¦¥",
  "3866": "-à¦¨",
  "3867": "à¦¿ à¦¬à¦¾à¦à¦²à¦¾à¦¦à§à¦¶",
  "3868": "à§à¦° à¦°à¦¾à¦à¦¨à§à¦¤à¦¿à¦",
  "3869": "à§à¦¦à§à¦¦",
  "3870": "à§®à§¦",
  "3871": " à¦¬à¦°à§à¦·",
  "3872": "à¦¾ à¦¦à¦¿à¦¯à¦¼",
  "3873": " à¦à¦°à§à¦à¦¿à¦²à§à¦¨",
  "3874": "à¦¾à¦°à¦®à§à¦­",
  "3875": "à¦¬à¦°à§à¦¤à¦¨",
  "3876": "à§à¦° ",
  "3877": "à¦¿à¦¯à¦¼à¦¾ à¦",
  "3878": "à¦¿à¦° à¦¹",
  "3879": "à§­à§¦",
  "3880": "à§à¦¨à§à¦¦à§à¦°à¦¿à¦",
  "3881": "·à¦¡à¦¼",
  "3882": "à¦­à§à¦¯à§à¦¤à§à¦¥à¦¾à¦¨",
  "3883": "à§à¦° à¦à§à¦¨à§à¦¦à§à¦°",
  "3884": "à¦¾à¦¹à¦¿à¦¯à¦¼",
  "3885": "à¦¤à¦¾à¦° à¦à¦°",
  "3886": " à¦¸à¦à¦à§à¦¯à¦",
  "3887": " à¦¸à¦°à¦à¦¾à¦° à¦",
  "3888": "à§ à§¨à§¦à§¦",
  "3889": "à¦¨à§à¦¤à¦",
  "3890": "à¦¾à¦°à§à¦¬à¦¤à§à¦¯",
  "3891": " à¦¬à¦¨",
  "3892": "à§ à¦à§à¦¨à§",
  "3893": "à§ à¦¨à¦¿à¦°à§à¦¬à¦¾à¦",
  "3894": "à¦¿ à¦°à¦¯à¦¼à§à¦",
  "3895": "à§à¦²à¦¸",
  "3896": "à§ à§­",
  "3897": "à§à¦° à¦¹à¦¿à¦¸à¦¾à¦¬",
  "3898": "à¦¾à¦¦à§à¦¯",
  "3899": "à¦¿à¦¬à§à¦¦à¦¨",
  "3900": " à¦à¦¾à¦¤à§à¦°",
  "3901": " (à§§à§¯à§¨",
  "3902": "à¦¾à¦à¦¥",
  "3903": " à¦¶à§à¦°à§ à¦¹à¦¯à¦¼",
  "3904": "à¦¾à¦à¦¾à¦¦",
  "3905": "à¦°à¦à§à¦·",
  "3906": "à¦¾à¦§à§à¦¯",
  "3907": "à§à¦¯à¦¦",
  "3908": "à¦°à¦¾ à¦®",
  "3909": " à¦à§à¦°à§à¦",
  "3910": " à¦¦à§à¦¶à¦à§à¦²à§",
  "3911": "à§ à¦¸à¦à¦²",
  "3912": " à¦à§à¦°à¦¹à¦£",
  "3913": "à§à¦° à¦ªà¦°à¦¿à¦®à¦¾à¦£",
  "3914": "à¦£à§à¦",
  "3915": "à¦£",
  "3916": "à¦¿, à¦¸",
  "3917": "à¦£à§à¦¯",
  "3918": "à§à¦° à¦°à¦¾à¦·à§à¦à§à¦°",
  "3919": "à¦¸à¦à¦¸à§à¦à§à¦¤",
  "3920": "à§à¦° à¦¬à¦¿à¦ªà¦°à§à¦¤",
  "3921": "Re",
  "3922": "ce",
  "3923": "à¦¶à¦¾à¦¹",
  "3924": "à§ à¦¯à§à¦¦à§à¦§",
  "3925": "in ",
  "3926": "for",
  "3927": "à¦²à¦à§à¦·",
  "3928": "à¦¤à§à¦¤à¦°",
  "3929": "­à¦¾à¦°à¦¤à§à¦¯à¦¼",
  "3930": " à¦à¦à§à¦à§à¦¬",
  "3931": "à¦¿à¦° à¦­à¦¾à¦",
  "3932": " à¦à§à¦²à¦¾à¦¯à¦¼",
  "3933": "à¦°à¦à§à¦",
  "3934": "à¦¾à¦° à¦¦à¦²",
  "3935": " à¦ªà§à¦°à¦¸à§à¦",
  "3936": " à¦¬à¦¿à¦à¦¯à¦¼à§",
  "3937": "à¦¸à¦¾à¦¨",
  "3938": "à¦à¦°à§à¦·",
  "3939": "à¦ à¦à¦¾à¦¨à§à¦¯à¦¼à¦¾à¦°",
  "3940": "à¦à¦¨",
  "3941": " à¦à¦¨à§à¦¤à¦°à§à¦­",
  "3942": "\n à¦¬",
  "3943": "à¦¾ à¦¡",
  "3944": "à¦ à¦à¦à¦¸à§à¦",
  "3945": "à¦à¦¿à¦¦",
  "3946": " à¦¶à¦¹à§à¦¦",
  "3947": "à§à¦¹à§âà¦°",
  "3948": "à§à¦¹à§âà¦°à¦¾à¦à¦¯à¦¼à¦¾à¦°à§à¦¦",
  "3949": "à¦®à¦¨à§à¦¬à¦¯à¦¼",
  "3950": " à¦¸à§à¦à¦¾à¦¨",
  "3951": "à¥¤ à¦²",
  "3952": "à§à¦²à¦¾à¦­",
  "3953": "à¦¯à¦¾à¦¨",
  "3954": "à¥¤ à¦°",
  "3955": "à¦à§à¦·à¦¤",
  "3956": "à¦°à¦¦",
  "3957": " à¦¦à¦°à§à¦¶à¦¨",
  "3958": "à§à¦à¦",
  "3959": "à§§à§¬",
  "3960": " à¦¬à§à¦¯à¦¾à¦à¦¸à¦®à§à¦¯à¦¾à¦¨",
  "3961": "à¦¿à¦¸à§à¦",
  "3962": " à¦à¦à¦",
  "3963": " à¦°à§à¦«",
  "3964": "à§à¦",
  "3965": "à¦à§à¦à¦¾à¦¨à¦¿à¦",
  "3966": " à¦à¦¿à¦²à§à¦®à¦¿à¦à¦¾à¦° (",
  "3967": "à¦°à¦¾à¦¶",
  "3968": "à§à¦¬à¦¿à¦¤à§à¦¯à¦¼ à¦¬à¦¿à¦¶à§à¦¬à¦¯à§à¦¦à§à¦§",
  "3969": " à¦à§à¦°",
  "3970": "à¦°à§à¦à¦à¦¿à¦",
  "3971": "-à¦ªà§à¦·à§à¦ ",
  "3972": "istor",
  "3973": "à¦à¦",
  "3974": "à¦ªà§à¦¨",
  "3975": "à¦¿à¦à§à¦à¦¾à¦¨à§à¦°",
  "3976": "à§à¦¯à¦¾à¦°à¦¾à¦à§à¦¯à¦¼",
  "3977": " à¦¶à§à¦²à¦¶à¦¿à¦°",
  "3978": "\n| style=\"background:lime;\"|",
  "3979": "à¦¬à¦¾à¦à¦²à¦¾ à¦­à¦¾à¦·",
  "3980": " à¦ à¦ªà¦¶à§à¦à¦¿à¦®",
  "3981": " à¦ªà¦¾à¦°à§à¦¥à¦à§à¦¯",
  "3982": "à§ à¦«à§à¦¬à§à¦°à§à¦¯à¦¼à¦¾à¦°",
  "3983": "à§à¦¦à¦¾à¦¸",
  "3984": "à§à¦°à¦¾à¦¹",
  "3985": "à§ à¦¯à§à¦à§à¦¤",
  "3986": " à¦¯à§, à¦",
  "3987": "à¥¤ à¦«",
  "3988": "à¦¾, à¦à¦¬à¦",
  "3989": "à¦¨à¦¬",
  "3990": "à¦¾ à¦à¦à§à¦à¦²",
  "3991": "à¦° à¦­à¦¿à¦¤à§à¦¤à¦¿ à¦à¦°",
  "3992": "à¦¾ à¦¶à¦¬à§à¦¦",
  "3993": "à¦ªà§à¦°à¦¥à¦®",
  "3994": "à¦¾à¦°à§à¦¤",
  "3995": " à¦°à¦à¦¨à¦¾ à¦à¦°",
  "3996": "à§à¦à§à¦à¦²",
  "3997": "\nà¦¬à¦¾à¦à¦²à¦¾à¦¦à§à¦¶",
  "3998": "à§ à¦­à¦¾à¦°à¦¤à§à¦¯à¦¼",
  "3999": " à¦°à¦¾à¦·à§à¦à§à¦°à¦ªà¦¤à¦¿ à¦",
  "4000": "à¦®à¦¾à¦¦",
  "4001": "à¦¾à¦à§ à¦¸",
  "4002": "à§à¦¹à§à¦¤",
  "4003": "à§à¦° à¦à¦à¦à¦¿",
  "4004": ", à¦à¦¬",
  "4005": "à§ à¦à¦¨à§à¦¬à¦¾à¦¦",
  "4006": " à¦¬à§à¦¯à¦¬à¦¹à§à¦¤",
  "4007": " à¦¹à¦²à§à¦",
  "4008": "à¦¦à§à¦° à¦¨",
  "4009": " à¦à¦à¦¾à¦°",
  "4010": " à¦à¦à¦à¦¿ à¦®",
  "4011": "à¦¿à¦° à¦­",
  "4012": " à¦ à¦¦à¦à§à¦·à¦¿à¦£",
  "4013": "à¦£à§à¦ ",
  "4014": "à§:",
  "4015": "à¦¿à¦° à¦¤",
  "4016": "à§ à¦à¦à§à¦",
  "4017": "à§ à¦¸à¦à¦¯à§à¦à§à¦¤ à¦",
  "4018": "à¦¸à¦®à§à¦¹ \n",
  "4019": " à¦¶à¦¤à¦¾à¦¬à§à¦¦à§",
  "4020": "à¦¿à¦¤ à¦¶",
  "4021": " à¦¸à¦¾à¦§à¦¾à¦°à¦£à¦¤",
  "4022": "à§à¦° à¦¸à§à¦¬",
  "4023": "à§à¦°à¦",
  "4024": "à§à¦° à¦ªà§à¦°à¦¤à¦¿ à¦",
  "4025": "19",
  "4026": " O",
  "4027": " à¦ªà§à¦°à§à¦¬ à¦ªà¦¾à¦à¦¿à¦¸à§à¦¤à¦¾à¦¨",
  "4028": ", à¦¯à¦¦à¦¿à¦",
  "4029": "à¦¾à¦à§à¦·à¦°à¦¤",
  "4030": "à§à¦° à¦à¦°à§à¦¥à¦¨à§à¦¤",
  "4031": "à§à¦à¦",
  "4032": " à¦¦à§à¦·à§à¦",
  "4033": " à¦à¦¶à§à¦¯à¦¼",
  "4034": "à§à¦à¦",
  "4035": "à¦¿à¦¯à¦¼à¦¾à¦°",
  "4036": " à¦à¦¤à¦¿à¦¹à§à¦¯",
  "4037": "à§à¦° à¦à¦¸à§à¦¤à¦¿à¦¤à§à¦¬",
  "4038": "à¦¾ à¦¸à¦®à§à¦­",
  "4039": "à¦° à¦¯",
  "4040": "à§à¦¦à§à¦§ à¦§à¦°à§à¦®",
  "4041": "à¦¾à¦°à¦®à§à¦­à¦¿à¦",
  "4042": "à§à¦¯à¦¬à¦¸à¦¾à¦¯à¦¼",
  "4043": "à¦¾à¦¸à¦¨ à¦à¦°",
  "4044": "à¦¿ à¦§à¦°à§à¦®",
  "4045": "à§ à¦¬à§à¦°à¦¿à¦à¦¿à¦¶",
  "4046": "à¦à§à¦·à¦®à¦¤",
  "4047": " à¦¸à¦à¦à§à¦¯à¦¾à¦à¦°à¦¿à¦·à§à¦ ",
  "4048": "à§ª à¦à§à¦°à¦¿à¦·à§à¦à¦¾à¦¬à§à¦¦",
  "4049": "à§à¦°à§à¦«",
  "4050": "à¦¡à¦¼à¦¾à¦",
  "4051": "à¦®à¦¨à§à¦¤à§à¦°à§à¦° à¦",
  "4052": "à¦¾à¦²à§à¦",
  "4053": " à¦¶à§à¦ à¦¹à¦¾à¦¸à¦¿à¦¨",
  "4054": " à§¨à§¦à§§à§ª",
  "4055": "à¦¿à¦¸à¦à¦à§à¦¯à¦¾à¦¨",
  "4056": " à¦®à¦¿à¦à¦¾à¦°",
  "4057": " à¦ªà¦°à§à¦¬à¦¤",
  "4058": "à¦à¦¾à¦¤ à¦",
  "4059": " à§§à§¯",
  "4060": "à¦à¦¿à¦à§",
  "4061": "à¦¾à¦°à§",
  "4062": "®à§à¦",
  "4063": "à§à¦¸à¦²à¦®à¦¾à¦¨",
  "4064": " à¦¹à§à¦°à¦¾à¦¸",
  "4065": " à¦à§à¦·à¦£à¦¾ à¦à¦°",
  "4066": "à¦¶à¦¿à¦¯à¦¼à¦¾à¦¨",
  "4067": "à¥¤ à¦à¦° à¦«à¦²",
  "4068": "à¦¾à¦° à¦®à¦¾à¦¨",
  "4069": " à¦¸à¦à¦¶",
  "4070": "à¦¾ à¦¹à¦¿à¦¸à¦¾à¦¬",
  "4071": "à¦¿à¦° à¦®à¦¾à¦§à§à¦¯à¦®",
  "4072": "à§à¦",
  "4073": " à¦¸à§",
  "4074": " à¦¸à¦®à§à¦ªà§à¦°à§à¦£",
  "4075": "à¦¾à¦ªà¦¤à§à¦¤",
  "4076": "à§ à¦à¦à¦à¦¨",
  "4077": "à§¨à§­",
  "4078": "à¦¾à¦¯à¦¼à¦¾à¦¨",
  "4079": " à¦°à§à¦²à¦à¦¯à¦¼",
  "4080": " à¦à¦²à¦à§à¦",
  "4081": "à¦¤à§à¦°à¦¿à¦",
  "4082": "à¦¾ à¦à¦®",
  "4083": "à§à¦²à¦¿à¦­à¦¿à¦¶à¦¨",
  "4084": " à¦à§à¦¸à¦¬",
  "4085": "à¦¾à¦à¦¨à§à¦¡",
  "4086": " à¦²à§à¦à¦",
  "4087": "à¦¿à¦¤ à¦",
  "4088": "à¦¶à§à¦¬",
  "4089": " à¦®à¦¹à¦¾à¦",
  "4090": "à¦à§ à¦¦",
  "4091": "à¦¾à¦à¦¾à¦à¦¾à¦",
  "4092": "à¦¤à§à¦¨",
  "4093": "à§à¦° à¦®à¦§à§à¦¯",
  "4094": "ul",
  "4095": "Un",
  "4096": "à¦¿à¦¤à¦°à§à¦",
  "4097": "à¦¾à¦° à¦à§à¦·à§à¦",
  "4098": "à¦¿à¦°à§ à¦à¦¸",
  "4099": " à¦à¦à¦à§à¦",
  "4100": "à¦¬à¦¿à¦",
  "4101": "à¦­à¦¾à¦ª",
  "4102": "¯ à¦¸à¦¾à¦²",
  "4103": " à¦°à§à¦¡",
  "4104": "à¦¿à¦¦à§à¦¯à¦¾à¦²à¦¯à¦¼",
  "4105": "à§ à¦à¦¬à¦¸à§à¦¥à¦¾à¦¨ à¦à¦°",
  "4106": "-à§§à§¯à§®",
  "4107": " à¦ªà§à¦°à¦¾à¦£",
  "4108": "-à¦",
  "4109": "à¦¿à¦¤ à¦¹à¦à¦¯à¦¼",
  "4110": "à¦¾ à¦¦à¦¾à¦¬",
  "4111": "à¦¶à§ à¦",
  "4112": " à¦à¦",
  "4113": "à§à¦ª",
  "4114": "à¦¿â",
  "4115": "à¦°à§à¦¬à¦²",
  "4116": "à§à¦®à§à¦¤",
  "4117": " à¦®à¦¾à¦ ",
  "4118": "¸à¦®",
  "4119": "à¦¸à¦¾à¦¥",
  "4120": "à¦¾à¦ªà¦¨",
  "4121": "à§à¦²à¦¿à¦",
  "4122": " à¦®à¦¿à¦¨à¦¿à¦",
  "4123": "à¥¤ à¦¤à¦¾à¦°",
  "4124": " à¦¶à¦¾à¦",
  "4125": "à¦¨à¦¾à¦¨",
  "4126": "à§à¦° à¦¸à¦à¦¸à§à¦à§à¦¤",
  "4127": "ter",
  "4128": "à§à¦° à¦à¦ à¦¨",
  "4129": "à¦¿ à¦¦à§à¦¬à¦¾à¦°",
  "4130": "à§à¦²à¦¿à¦",
  "4131": " A",
  "4132": " \nà¦®",
  "4133": " à¦à¦à§à¦°",
  "4134": "à§®)\n",
  "4135": "à§ à¦ªà¦¾à¦¨",
  "4136": "à¦¤à¦® à¦¬",
  "4137": "à¦°à¦¾à¦à¦¶à¦¾à¦¹à§",
  "4138": "\n à¦°à¦¾à¦à¦¶à¦¾à¦¹à§",
  "4139": "à¦«à§à¦°à¦¿à¦à¦¾à¦¨",
  "4140": "à§ à¦à¦¤à§à¦¤à¦° à¦à¦®à§à¦°à¦¿à¦",
  "4141": "à§, à¦à¦à¦°à§à¦ª",
  "4142": "à§ à¦ªà§à¦°à¦¶à¦¾à¦¨à§à¦¤ à¦®à¦¹à¦¾à¦¸à¦¾à¦à¦°",
  "4143": " à¦ªà§à¦°à¦£à¦¾à¦²",
  "4144": "à¥¤ à¦à¦",
  "4145": " à¦®à¦¹à§à¦¸à§à¦ªà¦¾à¦¨",
  "4146": "à§à¦¶à§à¦¯à¦¼",
  "4147": " à¦à¦",
  "4148": "à¦à¦à¦¨",
  "4149": "à¤",
  "4150": "à§à¦¯à¦¼à¦¾à¦°-",
  "4151": "à§à¦¯à¦¼à¦¾à¦°-à¦­à¦¾à¦",
  "4152": "à¦¿à¦à§à¦¨",
  "4153": "à§à¦²à¦¾à¦¨",
  "4154": "¬à¦¾à¦à¦²à¦¾à¦¦à§à¦¶",
  "4155": " à¦à¦¥à¦¾ à¦¬à¦²",
  "4156": "à¦¨à§",
  "4157": "à§à¦° à¦®à¦§à§à¦¯ à¦¦à¦¿à¦¯à¦¼",
  "4158": "à§ à¦ªà§à¦°à¦à¦²",
  "4159": "à§¨ à¦à§à¦°à¦¿à¦·à§à¦à¦¾à¦¬à§à¦¦à§à¦°",
  "4160": "à¦¶à§ à¦«à§à¦¬à§à¦°à§à¦¯à¦¼à¦¾à¦°",
  "4161": "à¦¿à¦¬à¦¾à¦¦",
  "4162": " à¦à¦¾à¦¤à§à¦° à¦",
  "4163": "à¦¾à¦®à§à¦²à¦",
  "4164": "à¦¿à¦­à¦à§à¦¤",
  "4165": " à¦à¦¤à§à¦¯à¦¾à¦¦à¦¿",
  "4166": "à§ à¦à¦ª",
  "4167": " à¦­à¦¾à¦·à¦¾à¦¸à¦®à§à¦¹",
  "4168": "à¦à§à¦·à§à¦¤à§à¦°",
  "4169": "à§à¦à¦°à¦£",
  "4170": "à¦à§à¦²à§à¦",
  "4171": "à¦ªà§à¦°à§à¦·",
  "4172": "à§à¦¬à¦¨à§à¦¦",
  "4173": " à¦°à¦¾à¦à¦¬à¦à¦¶",
  "4174": "à¦¾à¦ªà§à¦°",
  "4175": "à§ à§§à§ª",
  "4176": "à§ à¦à¦®à¦¨",
  "4177": " à¦ªà¦¾à¦à¦¯à¦¼",
  "4178": "à¦¤à§ à¦¹à¦¬",
  "4179": "à¦¾à¦¸à¦¿à¦",
  "4180": " à¦à¦à§à¦à¦²à¦¿à¦",
  "4181": "à§ à¦¬à§à¦¯à¦¬à¦¹à§à¦¤",
  "4182": " à¦à¦®",
  "4183": "à§§à§¯à§«",
  "4184": "à¦¾ à¦ªà§à¦°à¦¦à¦¾à¦¨",
  "4185": " à¦à¦¾à¦¡à¦¼à¦¾à¦",
  "4186": "à§à¦¨à¥¤ à¦®",
  "4187": "à¦¾ à¦°à§à¦ª",
  "4188": "à¦¿à¦¸à§à¦®à§à¦¬",
  "4189": "à¦¾à¦¤à¦¿à¦¸à¦à¦",
  "4190": "à§à¦° à¦¦à§à¦",
  "4191": "à¦¦à§à¦§à¦¤à¦¿ à¦",
  "4192": " à¦ªà¦¾à¦¯à¦¼",
  "4193": "à¦à¦¾à¦",
  "4194": "à§ à¦¬à¦¿à¦­à¦à§à¦¤ à¦à¦°",
  "4195": "à¦¾ à¦¸à§à¦¬",
  "4196": " à¦¶à¦¬à§à¦¦à¦à¦¿ à¦",
  "4197": "à¦¸à§à¦¥à¦¾à¦¨à§à¦¯à¦¼",
  "4198": "à¦¨à¦¾à¦®à§à¦²à¦",
  "4199": "à§à¦¯à¦¼ à¦",
  "4200": " à¦¬à§à¦",
  "4201": "à§à¦° à¦ªà¦à§à¦·",
  "4202": " à¦¯à§à¦à§à¦¤",
  "4203": "­à¦¾à¦¬",
  "4204": "à§ à¦®à§à¦²",
  "4205": "à§à¦° à¦¬à§",
  "4206": ") à¦",
  "4207": " à¦¬à§à¦¦à§à¦§",
  "4208": "à¦à§à¦°à¦¹à¦£ à¦à¦°",
  "4209": "à¦¿, à¦ª",
  "4210": "\n                                                                ",
  "4211": "à§à¦° à¦à¦¨à§à¦¤à¦°à§à¦­à§à¦à§à¦¤ à¦",
  "4212": " à¦à¦£à¦¤à¦¾à¦¨à§à¦¤à§à¦°à¦¿à¦",
  "4213": "à§ à¦¬à¦¿à¦¶à§à¦·",
  "4214": "à§à¦¯à¦¾à¦²à§à¦à§à¦",
  "4215": "à¦¶à§à¦°à§à¦¤à¦¿à¦¤",
  "4216": "à¦¿à¦°à¦ªà§à¦à§à¦·",
  "4217": "à§ à¦ªà¦¾à¦à¦¯à¦¼à¦¾ à¦¯à¦¾à¦¯à¦¼",
  "4218": "à¦à¦¿à¦° à¦¬",
  "4219": "à¦¾ à¦²à¦¾à¦­ à¦à¦°",
  "4220": "à¦¿à¦¡à¦¼",
  "4221": "à§à¦¤à§à¦° à¦",
  "4222": " à¦¸à¦®à§à¦ªà§à¦°",
  "4223": "à¥¤ à¦",
  "4224": " à¦ªà¦°à¦¿à¦¬à¦¹à¦¨",
  "4225": "à§ à¦¬à¦¾à¦¸",
  "4226": "à§ à¦à¦¿à¦¹à§à¦¨",
  "4227": " à¦®à¦¾à¦¨à¦à¦¿à¦¤à§à¦°",
  "4228": " à¦ªà§à¦°à¦",
  "4229": "à§ à¦à§à¦¨",
  "4230": "\nà¦ªà§à¦°",
  "4231": "à§à¦à¦¿à¦²à§",
  "4232": "à¦° à¦§à¦°",
  "4233": "à¦¸à§à¦¨",
  "4234": " à¦à¦¸à§à¦",
  "4235": "¨à¦¤à§à¦¨",
  "4236": " à¦ªà§à¦°à¦¦à§à¦¶",
  "4237": "à¦¿à¦¤à§à¦¤à¦¿à¦¤",
  "4238": "à§ à¦­à§à¦®",
  "4239": "à¦¯à¦¼",
  "4240": "à¦¾à¦° à¦®à§à¦²",
  "4241": "¯à¦¨à§à¦¤à§à¦° à¦",
  "4242": "à§à¦¯à¦¼ à¦à¦à§à¦à¦²",
  "4243": "à¦ à¦",
  "4244": "à¦¾à¦¹à¦¿à¦¯à¦¼à¦¾ à¦à¦¾à¦¨",
  "4245": "à§à¦°à§à¦«à¦¤à¦¾à¦° à¦à¦°",
  "4246": "à¦¿à¦ªà§à¦²",
  "4247": "à¦¿ à¦à¦",
  "4248": "à§© à¦à§à¦°à¦¿à¦·à§à¦à¦¾à¦¬à§à¦¦",
  "4249": " à¦ªà¦°à¦¬à¦°à§à¦¤à§à¦à¦¾à¦²",
  "4250": "à¦¾ à¦à¦à§à¦à¦à§à¦°à¦¾à¦®",
  "4251": "à¦¯à¦¼à¦¿à¦",
  "4252": "à§à¦¨à¥¤ à¦¶",
  "4253": "à¦­à§à¦à§à¦²",
  "4254": "à§ à¦¸à¦°à§à¦¬à§à¦à§à¦",
  "4255": " à¦à¦¶à¦¿à¦¯à¦¼à¦¾à¦¯à¦¼",
  "4256": "à¦¾à¦°à§à¦²à§à¦¡",
  "4257": "à§ à¦à§à¦·",
  "4258": "à¦¾à¦¯à¦¼à§à¦° à¦",
  "4259": " à¦¦à¦¶à¦®",
  "4260": " à¦¬à¦à¦° à¦¬à¦¯à¦¼à¦¸",
  "4261": "à§à¦¥à§à¦¯",
  "4262": "à¦°à§à¦§à§à¦",
  "4263": "à§ à§§",
  "4264": "-à§¨à§¦",
  "4265": " à¦¬à¦¿à¦¦à§à¦¯à¦¾à¦²à¦¯à¦¼",
  "4266": "à¦¾à¦¦à§à¦°à¦¾à¦¸",
  "4267": "à§à¦° à¦¶à§à¦·",
  "4268": " à¦à¦¾à¦¤",
  "4269": "à¦¤à¦¬",
  "4270": " à¦ªà¦¾à¦°à§à¦",
  "4271": " à¦¨à¦¾à¦à¦°à¦¿à¦",
  "4272": " à¦¬à¦¿à¦à¦¾à¦°",
  "4273": "à¦¾à¦°à§à¦¦",
  "4274": " à¦¹à¦²à§à¦¨",
  "4275": "à¦°à¦à¦¾à¦° à¦",
  "4276": "à§§à§§",
  "4277": "à¦®à§à¦ªà§à¦°à§à¦£",
  "4278": " à¦¸à§à¦¬à¦¾à¦§à§à¦¨à¦¤",
  "4279": "à¦¤à§à¦¯à§à¦",
  "4280": "à¦°à§à¦­à§à¦®",
  "4281": "à¦¾à¦à¦¬à§à¦°",
  "4282": "à¦ªà¦¾à¦°",
  "4283": "à¦¬à¦¾à¦¦à§",
  "4284": " à¦¨à¦¿à¦®à§à¦¨",
  "4285": "à§ à¦¦à¦¾à¦à¦¡à¦¼",
  "4286": "à§à¦à¦¸",
  "4287": "à§§à§©",
  "4288": " à¦¸à¦¾à¦®à¦¾à¦à¦¿à¦",
  "4289": "à¦¿à¦¶à§à¦²",
  "4290": " à¦à§à¦¯à¦¾à¦¨à§à¦¡",
  "4291": "¯à§à¦à¦¾à¦¯à§à¦",
  "4292": " à¦¨à¦¿à¦°à§à¦®à¦¾à¦£",
  "4293": "à§ à¦¸",
  "4294": "à¦¦à§à¦¬",
  "4295": "à¦°à¦¨",
  "4296": "à¦¿à¦¬à§à¦¶à¦¨",
  "4297": "à¦¨à¦ªà§à¦°à¦¿à¦¯à¦¼",
  "4298": "à¦à¦¨à§à¦¨",
  "4299": "à¦¾à¦ªà§à¦",
  "4300": "à¦¤à§",
  "4301": " à¦°à¦¾à¦¤",
  "4302": "à¦à§à¦°à¦¿à¦à§à¦",
  "4303": "à¦à¦¿à¦²à§à¦¯à¦¾à¦¨à§à¦¡",
  "4304": " à¦¬à¦¿à¦¶à§à¦¬à¦à¦¾à¦ª",
  "4305": "à¦¶à¦¿à¦²à§à¦ª",
  "4306": "à¦à¦®",
  "4307": "à§ à§§à§¦",
  "4308": "à¥¤ à¦¤à¦¿à¦¨",
  "4309": "à¦¾à¦§à¦¾à¦¨à§à¦¯",
  "4310": " M",
  "4311": "low",
  "4312": "lan",
  "4313": " à¦à¦à§à¦à§à¦ªà¦¾à¦§à§à¦¯à¦¾à¦¯à¦¼",
  "4314": " à¦à¦¨à§à¦®",
  "4315": " à¦à§à¦²à¦¾à¦",
  "4316": " à¦®à§à¦¯à¦¾à¦",
  "4317": "à¦à¦¾à¦¤",
  "4318": "à¦¾'",
  "4319": "à¦¾à¦¥à¦®à¦¿à¦à¦­à¦¾à¦¬",
  "4320": "à§à¦¨à¥¤ à¦¤à¦¬",
  "4321": "à§ à¦¤à¦¿à¦¨à¦¿",
  "4322": " à¦ªà§à¦°à¦¶",
  "4323": "à¦¿à¦¤ à¦à¦¬à¦",
  "4324": "à¦­à¦¬à¦¨",
  "4325": "à¦²à§à¦¯à¦¼",
  "4326": "à§à¦° à¦à§à¦·à¦®à¦¤",
  "4327": "à¦²à§",
  "4328": "à¦²à§à¦",
  "4329": " à¦ªà¦°à¦¿à¦¸",
  "4330": "à¦¶à¦¨",
  "4331": " à¦ à¦­",
  "4332": "à¦à¦¾à¦¨",
  "4333": "à¦¾à¦¨à§à¦§",
  "4334": "à¦¬à¦à§à¦à¦¬à¦¨à§à¦§à§",
  "4335": "à§ à¦¯à§à¦¤à§ à¦ªà¦¾à¦°",
  "4336": "à¦¦à¦°à§à¦¶à¦¨",
  "4337": "à¦¾à¦à¦¨à§à¦¸",
  "4338": "à¦°à§à¦¦à§",
  "4339": "à¦à¦à§à¦°",
  "4340": "à¦à¦à§à¦°à§à¦¸",
  "4341": " à¦à¦²à§",
  "4342": "à¦¾à¦à¦²",
  "4343": "à¦¯à¦¼à§à¦",
  "4344": "à§à¦°à¦¿à¦à§à¦¨",
  "4345": "à§à¦¡à¦¼",
  "4346": "à¦²à¦¤",
  "4347": " à¦à¦° à¦",
  "4348": "à¦¿, à¦",
  "4349": "à¦²à¦¾à¦ª",
  "4350": " à¦¬à¦²à¦¤",
  "4351": "à§à¦° à¦§à¦°à§à¦®",
  "4352": "à§à¦° à¦ªà¦°",
  "4353": "à§à¦°à§à¦¨à¦¾à¦®à§à¦¨à§à¦",
  "4354": "à§à¦à¦²",
  "4355": "à¦¬à¦¿à¦¦à§à¦¯",
  "4356": " à¦ªà§à¦°à¦¾à¦¨à§à¦¤",
  "4357": "à¦¬à¦à§à¦¯à¦¼à§ à¦¬à§à¦¶",
  "4358": " à¦à§à¦¯à¦¾à¦°à¦¿à¦¬à¦¿à¦¯à¦¼à¦¾à¦¨",
  "4359": "à§ à¦à¦¾à¦¨",
  "4360": " à¦à¦¨à§à¦¬à¦¾à¦¦",
  "4361": "à¦§à§à¦¨à¦¿à¦ à¦¯à§à¦",
  "4362": "), à¦",
  "4363": "à§¯à§®",
  "4364": "à¦¸à¦à¦¿à¦¦",
  "4365": "\" à¦¨à¦¾à¦®",
  "4366": " à¦ªà¦°à¦¿à¦·à§à¦¬",
  "4367": "à§à¦¦à¦¨",
  "4368": " à¦à¦ªà¦¦à§à¦¬à§à¦ª",
  "4369": "à¦¿à¦¯à¦¼à¦¾ à¦à¦¬à¦",
  "4370": "à¦¿à¦·à§à¦¬",
  "4371": " à¦ªà§à¦°à¦£à¦¾à¦²à§",
  "4372": "à§à¦¯à¦¼ à¦ªà¦¾à¦¤",
  "4373": "à§ à¦¸à§à¦°à§à¦¯",
  "4374": "à§à¦¨à¦²à§à¦¯à¦¾à¦¨à§à¦¡",
  "4375": "ligion",
  "4376": "ªà§à¦¥à¦¿à¦¬à§à¦° à¦",
  "4377": " à¦¬à¦¾à¦¯à¦¼à§à¦®à¦£à§à¦¡à¦²",
  "4378": "à¦¾à¦¤à¦¾à¦¸",
  "4379": " à¦à¦ªà§à¦¨",
  "4380": "à§-",
  "4381": " à¦à¦ªà¦¤à§à¦¯à¦",
  "4382": "à¦¿à¦¹à¦¾à¦°",
  "4383": "à§à¦",
  "4384": "à§ à¦°à¦",
  "4385": "-à§§à§®",
  "4386": "à¦§à§à¦¨à¦¿à¦ à¦¬",
  "4387": "à¦¸à§à¦°",
  "4388": ", à¦¬à¦¾à¦à¦²",
  "4389": "à§ à¦à¦¥",
  "4390": "à¦¹à§à¦¨",
  "4391": " à¦¶à¦¾à¦¸à¦",
  "4392": "à¦¾ à¦¯à§à¦¤à§ à¦ªà¦¾à¦°",
  "4393": " à¦°à¦à¦¨",
  "4394": " à¦¸à§à¦¬à¦°",
  "4395": " (à¦¨",
  "4396": "â (",
  "4397": " à¦¬à§à¦¯à¦¾à¦à¦°à¦£",
  "4398": " à¦°à¦¾à¦¯à¦¼",
  "4399": "à¦¬à§à¦¨à§à¦¦à§à¦°à¦¨à¦¾à¦¥",
  "4400": " à¦ à¦¾à¦à§à¦°",
  "4401": "à§ à¦®à¦¨à§ à¦à¦°",
  "4402": "à¦¿à¦¤ à¦",
  "4403": "à§ à¦¨à§à¦¯à¦¼",
  "4404": "à¦¾ à¦¸à¦¹",
  "4405": "]]",
  "4406": "à§à¦¤à¦¿à¦",
  "4407": "à§à¦à§à¦·",
  "4408": "à§à¦¯à¦ªà§à¦°à§à¦£",
  "4409": "à¦¾à¦° à¦¶à¦¬à§à¦¦",
  "4410": "à§ à¦¦à§à¦¬",
  "4411": "à¦ à¦¬",
  "4412": ", à¦¤à¦¬",
  "4413": "à¦° à¦¨à¦¿à¦°à§à¦­",
  "4414": "à¦¾à¦° à¦¬à§à¦¯à¦¬à¦¸à§à¦¥",
  "4415": " à¦¹à¦¾à¦¤",
  "4416": "à¦¾ à¦¸à¦¾à¦®",
  "4417": "à§ à¦ªà¦¾à¦à¦¯à¦¼",
  "4418": " (à¦¯à§à¦®à¦¨",
  "4419": "¦à§",
  "4420": "à§à¦¸à§à¦¤",
  "4421": " à¦à¦° à¦¬",
  "4422": "à¦¨à¦¿à¦®à§à¦¨",
  "4423": "à§à¦®à¦¿\n",
  "4424": "y of ",
  "4425": "à¦¾, à¦ª",
  "4426": "ric",
  "4427": "\nà¦ª",
  "4428": " à¦à¦¬à¦¦à¦¾à¦¨",
  "4429": "à§ à¦ªà§à¦¥à¦¿à¦¬à§à¦° à¦¬",
  "4430": " à¦à¦¡à¦¼à¦¿à¦¯à¦¼à§ à¦ªà¦¡à¦¼",
  "4431": " à¦à§à¦ªà¦¾à¦¦à¦¨",
  "4432": "à§à¦° (",
  "4433": "à¦¾à¦¹à¦¤",
  "4434": " à¦à§à¦à¦¿ à¦",
  "4435": "à§ à¦®",
  "4436": "à§à¦° à¦¤",
  "4437": "à§à¦°à¦¹à§à¦®",
  "4438": "à¦¨à§à¦®",
  "4439": "à¦¿à¦¤ à¦¹à¦¯à¦¼à§à¦",
  "4440": " à¦à§à¦°à§à¦¤à§à¦¬à¦ªà§à¦°à§à¦£",
  "4441": "à¦¯à§à¦à¦¿à¦¤",
  "4442": "à¦à¦°",
  "4443": "à¦¸à¦²à¦¾à¦®à§",
  "4444": "à§à¦à§, à¦¯",
  "4445": "à§à¦à§à¥¤ à¦à¦",
  "4446": "à¥¤ à¦ªà§à¦°à¦¾à¦à§à¦¨",
  "4447": " à¦à¦¨à¦à§à¦·à§à¦ à§",
  "4448": " à¦ªà§à¦°à¦¯à§à¦à§à¦¤",
  "4449": "à¥¤ à¦à¦à¦¿",
  "4450": "à§à¦ªà¦¾à¦²",
  "4451": "à¦¿à¦°à§à¦­à§à¦¤",
  "4452": "à¦¦à¦¾à¦¦",
  "4453": ", à¦¤à¦¾à¦°",
  "4454": "à¦¿à¦·à§à¦à§à¦¤",
  "4455": "à¦¿à¦¦à§à¦¶",
  "4456": " à¦¿à¦",
  "4457": "à§ à¦¸à¦¾à¦®à¦°à¦¿à¦",
  "4458": "à§à¦®à§à¦ªà¦¾à¦¨",
  "4459": " à¦¸à§à¦¨à¦¾à¦¬à¦¾à¦¹à¦¿à¦¨à§",
  "4460": "à¦¾à¦à¦§",
  "4461": " à¦°à¦¾à¦à¦¨à§à¦¤à¦¿à¦ à¦¦à¦²",
  "4462": "à§ à¦ªà¦°à¦¿à¦£à¦¤ à¦¹à¦¯à¦¼",
  "4463": "à¦à¦¯à¦¼à§à¦¬",
  "4464": "à§à¦à§à¦¤à¦¿à¦¯à§à¦¦à§à¦§",
  "4465": " à¦à¦",
  "4466": "à¦¶à¦¾à¦²",
  "4467": "à¦¤à¦¾à¦¬à¦¾à¦¦à§",
  "4468": " à§§à§¯à§¯à§¦",
  "4469": " à¦à¦¨à§à¦·à§à¦ à¦¿à¦¤ à¦¹à¦¯à¦¼",
  "4470": "à§® à¦à§à¦°à¦¿à¦·à§à¦à¦¾à¦¬à§à¦¦",
  "4471": " à§¨à§¦à§§à§® à¦¸à¦¾à¦²",
  "4472": "§à¦°à¦¨",
  "4473": "¯à¦",
  "4474": ", à¦¬à¦°",
  "4475": "à§©à§¦",
  "4476": "à¦¿à¦°à¦¾à¦",
  "4477": "à§ à¦à¦¨à§à¦·à§à¦ ",
  "4478": ",à§¬",
  "4479": "à§ à¦¬à§à¦¯à¦¾à¦ªà¦",
  "4480": ".à§¯",
  "4481": "à¦¾à¦¸à§à¦¤à¦¬à¦¾à¦¯à¦¼",
  "4482": "à¦¿à¦à¦¸",
  "4483": "à§à¦¯à¦¯à¦¼",
  "4484": "à§à¦²à§à¦¯",
  "4485": "à¦¨à§à¦¯à¦¾à¦¶à¦¨à¦¾à¦²",
  "4486": " à¦¨à¦¾à¦à¦¾à¦¦",
  "4487": "à§à¦§à¦¨",
  "4488": "à§à¦° à¦",
  "4489": "à§à¦à§à¦¨à¥¤ à¦",
  "4490": "à§ à¦ªà§à¦°à¦¬à§à¦¶",
  "4491": "à§à¦° à¦à§à¦¨",
  "4492": "à¦¿à¦à¦²à§à¦ªà¦¨",
  "4493": " à§¨à§¦à§¨",
  "4494": " à¦¸à¦®à§à¦ªà¦¾à¦¦",
  "4495": "à¦¿à¦¤ à¦¤",
  "4496": "à¦¸à¦¾à¦°à¦£",
  "4497": " à¦¸à§à¦¥à¦¾à¦ªà¦¨ à¦à¦°",
  "4498": "à¦¾ à¦®à§à¦²à¦¤",
  "4499": "-à¦ªà§à¦°",
  "4500": "à§à¦²à¦ªà¦¥",
  "4501": "à¦¾à¦°à¦¾ à¦¬",
  "4502": "­ à¦¸à¦¾à¦²",
  "4503": ", à¦à§à¦¨",
  "4504": " à¦¸à§à¦¥à¦¾à¦ªà¦¨",
  "4505": "à¥¤ à¦¢à¦¾à¦",
  "4506": " à¦¤à¦¾à¦",
  "4507": "à¦¿ à¦à§à¦°",
  "4508": "à¦¾à¦¬à¦¦à§à¦§",
  "4509": "à¦¾à¦à§à¦¤ à¦",
  "4510": "à¦§à§à¦¯à¦¬à¦°à§à¦¤à§",
  "4511": "à¦à§à¦à§à¦²",
  "4512": "à¦à§à¦à¦¿à¦®",
  "4513": "ess",
  "4514": ", D",
  "4515": "to ",
  "4516": "à¦¸à§à¦¤à§à¦¤",
  "4517": "à§à¦° à¦à¦°à§à¦¥",
  "4518": "à¦¨à¦¿à¦·à§à¦ ",
  "4519": "à§à¦²à§à¦¯à¦¼à¦¾à¦¡à¦¼",
  "4520": "à§ à¦à¦¸à§à¦à§à¦°à§à¦²à¦¿à¦¯à¦¼",
  "4521": " à¦à¦¨",
  "4522": "à¦¿à¦° à¦¶",
  "4523": " à¦¹à§à¦¸à§à¦¨",
  "4524": "\n à¦¸",
  "4525": " à¦«à§à¦²",
  "4526": " \n \n \n \n",
  "4527": "â à¦¨à¦¾à¦®",
  "4528": " à¦à¦à¦¿à¦²",
  "4529": " à¦¥à§à¦à§ à¦",
  "4530": " à¦¸à§à¦¹à§âà¦°à¦¾à¦à¦¯à¦¼à¦¾à¦°à§à¦¦",
  "4531": "à¦¾à¦à¦¨à§à¦¸à¦¿à¦²",
  "4532": "à§à¦° à¦¸à¦®à§à¦®",
  "4533": " à¦ªà§à¦°à¦®à§à¦",
  "4534": "à§à¦° à¦¸à¦¾à¦§à¦¾à¦°à¦£",
  "4535": "à¥¤ à§§à§«",
  "4536": "à¥¤ à§§à§¬",
  "4537": " à¦¦à§à¦à¦¯à¦¼à¦¾ à¦¹à¦¯à¦¼",
  "4538": " à¦à¦¾à¦ à¦¾à¦®à§",
  "4539": "à¦¿à¦° à¦à¦¾à¦°à¦£",
  "4540": "à¦¾à¦à¦¿",
  "4541": " à¦¥à§à¦à§ à¦ªà§à¦°",
  "4542": "à§à¦à¦°à§à¦¡",
  "4543": "à¦° à¦¸à¦®",
  "4544": "à¦¾ à¦¸à§à¦·à§à¦",
  "4545": " à¦®à¦",
  "4546": "à§à¦¤à§à¦°à¦¿à¦®",
  "4547": "à§à¦à§à¦¡à¦¿à¦¯à¦¼à¦¾à¦®",
  "4548": "à§à¦®à¦¸",
  "4549": "à¦à§à¦¨à§à¦¯à¦¼",
  "4550": "à¦®à§à¦ªà¦¿à¦à¦",
  "4551": "à¦¿à¦¸à§à¦¤à¦¾à¦°",
  "4552": "à§à¦¯à¦¸à§à¦¤",
  "4553": "à¦",
  "4554": " à¦à¦­",
  "4555": "à¦¿à¦®à¦¾à¦ª",
  "4556": " à¦®à¦§à§à¦¯à¦¯à§à¦",
  "4557": " à¦à¦°à¦¾à¦à¦¾à¦¨",
  "4558": "à¦° à¦¹à¦¯à¦¼",
  "4559": " à¦¬à§à¦à¦¿à¦¤à§à¦°",
  "4560": "à¦¿à¦¶à§à¦°à¦£",
  "4561": "à¦¿à¦¤à¦²",
  "4562": "à¦¾à¦²à¦¬",
  "4563": "à¦ à¦¿à¦",
  "4564": " à¦¸à¦®à¦­à§à¦®",
  "4565": " (à§§",
  "4566": " à¦¸à¦¾à¦à¦¸à§à¦à§à¦¤à¦¿à¦",
  "4567": " à¦¶à¦¿à¦à§à¦·à¦¾ à¦ªà§à¦°à¦¤à¦¿à¦·à§à¦ à¦¾à¦¨",
  "4568": " à¦¨à¦°à§à¦¥",
  "4569": " à¦¸à§",
  "4570": "à¦°à¦¾à¦à¦¾à¦¨",
  "4571": " à¦à¦°à§",
  "4572": "à¦¤à§",
  "4573": "à¦§à§à¦¯à¦¸à¦¾à¦à¦°",
  "4574": "à§à¦¯à¦¾à¦à¦¿à¦¨",
  "4575": "à¦à¦à§",
  "4576": " à¦à¦à§à¦·à¦¾à¦à¦¶",
  "4577": " à¦ªà§à¦°à¦¾à¦£à§",
  "4578": " à¦à¦°",
  "4579": "à§à¦¤à§à¦¤",
  "4580": "ellow",
  "4581": "à¥¤ à¦ªà§à¦¥à¦¿à¦¬à§à¦° à¦",
  "4582": " à¦¦à§à¦°à¦¤à§à¦¬",
  "4583": "à¥¤ à¦ªà§à¦¥à¦¿à¦¬à§",
  "4584": "à§à¦¯à§à¦¤à¦¿à¦°à§à¦¬",
  "4585": "à¦à§à¦¸à¦¿à¦à§à¦¨",
  "4586": "Ear",
  "4587": "Earth",
  "4588": "à§à¦°à§à¦®à¦£à§à¦¡à¦²",
  "4589": "\nà¦«",
  "4590": "à§à¦ªà¦¸à¦¾à¦à¦°",
  "4591": "à¦¾ à¦°à¦¾à¦",
  "4592": "à§à¦¯à¦à§à¦²à§",
  "4593": "à§ à¦¸à¦¬",
  "4594": "à¦¾ à¦¬à§à¦¯à¦¬à¦¹à¦¾à¦° à¦à¦°",
  "4595": "à§à¥¤ à¦¬à¦¾à¦à¦²à¦¾à¦¦à§à¦¶",
  "4596": "à§à¦° à¦¸",
  "4597": "à§à¦° à¦à§à¦¬à¦¨",
  "4598": "à§ à¦­à¦¾à¦ à¦à¦°à¦¾ à¦¹à¦¯à¦¼",
  "4599": "à§§à§ª",
  "4600": "à§à¦° à¦¸à¦¾à¦¥à§ à¦¸à¦¾à¦¥",
  "4601": "à¦¾à¦à§à¦à¦²à§à¦¯à¦¼",
  "4602": "à¥¤ à¦à¦¨à§à¦",
  "4603": " à§«à§¦à§¦",
  "4604": "à¦¾à¦° à¦¬à¦¿à¦­à¦¿à¦¨à§à¦¨",
  "4605": "à¦¿à¦«à¦²",
  "4606": "à¥¤ à¦¯à§à¦®à¦¨",
  "4607": " (à¦®",
  "4608": "à¦¬à¦¿à¦·",
  "4609": "à§à¦à¦¾à¦¬",
  "4610": " à¦à§à¦°à¦¾à¦®",
  "4611": " à¦ªà¦¶à§à¦à¦¿à¦®à¦¬à¦à§à¦",
  "4612": "à§ à¦à¦ à¦à¦à§à¦à¦²",
  "4613": "à¦¾à¦¸à¦¿à¦¤ à¦",
  "4614": "à§à¦° à¦ªà¦¾à¦¶à¦¾à¦ªà¦¾à¦¶",
  "4615": " à¦¸à¦à¦¯à§à¦à§à¦¤ à¦",
  "4616": "à¦¾à¦ªà§à¦°",
  "4617": " à¦à¦¨à§",
  "4618": " à¦à¦¾à¦¬",
  "4619": "à§à¦à¦¿à¦²à¥¤\n",
  "4620": "à§¯ à¦à§à¦°à¦¿à¦·à§à¦à¦¾à¦¬à§à¦¦",
  "4621": "à¦¨à¦¬à¦¿à¦à¦¶ à¦¶à¦¤à¦¾à¦¬à§à¦¦",
  "4622": "à§ à¦¬à¦¹",
  "4623": "à¦¾ à¦¨à¦¦",
  "4624": "à¦¾à¦° à¦¥à§à¦",
  "4625": "à¦¾à¦° à¦",
  "4626": "[[",
  "4627": "um",
  "4628": "à¦¾à¦¬à¦¾à¦¹",
  "4629": "¯à¦¤",
  "4630": "à§à¦à¦¾à¦¤à§à¦¯",
  "4631": " à¦à§à¦·",
  "4632": "à¥¤ à¦à¦¤à§à¦¤à¦°",
  "4633": "à§ à¦¸à§à¦¬",
  "4634": "à¦¾;",
  "4635": " à¦à¦­à§à¦°à¦¤",
  "4636": " à¦¯à§à¦à¦¾à¦¯à§à¦",
  "4637": "à¦¾à¦à¦¾à¦¡à¦¼",
  "4638": " à¦¤à¦¥à§à¦¯",
  "4639": "  (",
  "4640": " à¦²à¦¿à¦ª",
  "4641": "¤à¦¬",
  "4642": "à§à¦° à¦à¦¬",
  "4643": " à¦¯à¦¦",
  "4644": " à¦¨à¦¾ à¦¥à¦¾à¦",
  "4645": " à¦¨à¦¿à¦°à§à¦¦à§à¦¶",
  "4646": "à¦¾à¦à¦",
  "4647": " à¦¬à§à¦¯à¦¤",
  "4648": "à¦",
  "4649": "à§à¦°à§à¦ª",
  "4650": "à§ à¦®à¦¾à¦¨à¦¬",
  "4651": "à¦¸à¦®à§à¦ª",
  "4652": "ti",
  "4653": "gu",
  "4654": "\n        ",
  "4655": " à¦¸à§à¦®à¦¾à¦¨à§à¦¤",
  "4656": "à¦¾ à¦ à¦®",
  "4657": " à¦à¦¬à¦ à¦¦à¦à§à¦·à¦¿à¦£",
  "4658": "à§ à¦¬à¦à§à¦",
  "4659": "à¦¶à¦à§à¦¤",
  "4660": " à¦¬à¦¿à¦à§à¦¯à¦¾à¦¤ à¦",
  "4661": "ªà¦¶à§à¦à¦¿à¦®",
  "4662": "à¦¾à¦°à¦¿à¦¦à§à¦°",
  "4663": "à§à¦¨à¦",
  "4664": "à§ à¦¸à¦à¦¸à¦¦",
  "4665": "à¦à¦¨à¦¸à¦à¦à§à¦¯",
  "4666": " à¦à§à¦·à§à¦¦à§à¦° à¦",
  "4667": "à¦¾à¦à§à¦·à¦°à¦¤à¦¾à¦° à¦¹",
  "4668": " à§¨à§¨",
  "4669": " à¦¬à¦¿à¦²à¦¿à¦¯à¦¼à¦¨ à¦®à¦¾à¦°à§à¦à¦¿à¦¨ à¦¡à¦²à¦¾à¦°",
  "4670": " à¦¬à¦¾à¦°à§à¦·à¦¿à¦",
  "4671": " à¦à¦¾à¦",
  "4672": "à¦¾à¦¦à¦¶",
  "4673": "à¦¾à¦¶à¦à§à¦¤",
  "4674": "à§ à¦¸à¦®à§à¦¦à§à¦°",
  "4675": "à¥¤\nà¦¶",
  "4676": "à§ à¦¬à§à¦¯à¦¬à¦¹à¦¾à¦° à¦à¦°",
  "4677": " à¦à¦¨à§à¦¯",
  "4678": "à§« à¦à§à¦°à¦¿à¦·à§à¦à¦¾à¦¬à§à¦¦",
  "4679": "à¦ªà¦¾à¦²",
  "4680": " à¦§à§à¦¬à¦à¦¸",
  "4681": "à§à¦° à¦¬à¦°à§à¦¤à¦®à¦¾à¦¨",
  "4682": " à¦®à¦¾à¦",
  "4683": "à¦¸à§à¦¤à§à¦°",
  "4684": " à¦à§à¦¨à§à¦¦à§à¦° à¦",
  "4685": "à¦°à§à¦£à¦¨",
  "4686": " à¦ªà¦¥",
  "4687": "à¦¾à¦° à¦¬à¦",
  "4688": "à§à¦° à¦ªà¦° à¦",
  "4689": "à§à¦° à¦à¦§à¦¿à¦",
  "4690": " à¦à¦¾à¦°",
  "4691": "à¦¿ à¦¨à¦¿à¦¯à¦¼",
  "4692": " à¦ªà¦°à¦¿à¦à¦¾à¦²à¦¨à¦¾ à¦à¦°",
  "4693": "à§à¦à¦¨",
  "4694": "à§ à¦à§à¦°à§à¦«à¦¤à¦¾à¦° à¦à¦°",
  "4695": "à¦¾à¦²à¦",
  "4696": "à¦¹à¦¤à§à¦¯",
  "4697": " à¦à¦ªà§à¦°à¦¿à¦²",
  "4698": " à¦¡à¦¿à¦¸à§à¦®à§à¦¬",
  "4699": "à¦¾ à¦¯à§à¦¦à§à¦§",
  "4700": "à§ à¦à¦à¦",
  "4701": " \nà¦¸",
  "4702": "à§« à¦à§à¦°à¦¿à¦·à§à¦à¦¾à¦¬à§à¦¦à§à¦°",
  "4703": "à¦¿à¦¹à§à¦¨",
  "4704": "à§ à¦à§à¦·à¦®à¦¤",
  "4705": "à§ à¦à¦¾à¦¤à§à¦¯à¦¼",
  "4706": "à§à¦à¦®",
  "4707": " à¦à¦¾à¦²",
  "4708": " à¦®à§à¦¯à¦¼à¦¾à¦¦",
  "4709": "à§à¦¤à§à¦¬à¦¾à¦§à§à¦¨",
  "4710": "à¦¿à¦à¦",
  "4711": "à§à¦°à§",
  "4712": "à§à¦¤à¦°à§à¦­à§à¦à§à¦¤",
  "4713": "à¥¤ à¦ªà§à¦°à¦¤",
  "4714": "à¦°à§à¦®à¦à¦°à§à¦¤",
  "4715": "à¦¾ à¦¨à§à¦",
  "4716": "à§à¦° à¦à¦à¦¨",
  "4717": "à¥¤\nà¦",
  "4718": " à¦à§à¦°à§à¦·à§à¦®",
  "4719": "-à§¨",
  "4720": "à§à¦à§à¦°à¦¾à¦²",
  "4721": "à§à¦¬à¦¿à¦¤à§à¦¯à¦¼ à¦¬",
  "4722": "à§ à¦¬à¦¿à¦¸à§à¦¤à§à¦¤",
  "4723": "à§à¦ªà¦¾à¦²à¦à¦à§à¦",
  "4724": "à¦ªà§à¦°à¦¾à¦ªà§à¦¤ à¦",
  "4725": " à¦§à¦°à§à¦®à§à¦¯à¦¼",
  "4726": "à§ à¦à¦¨à§à¦¨à§à¦¤",
  "4727": "à¦¿à¦¨à¦¿à¦®",
  "4728": "à¦¿à¦à§à¦·à¦¾ à¦¬",
  "4729": "à¦¾ à¦à¦¾à¦¤",
  "4730": "à¦°à¦ à¦¬à§à¦¶",
  "4731": " à¦¤à§à¦²",
  "4732": "à¦¿ à¦à¦¬",
  "4733": " à¦ à¦ªà§à¦°à¦¯à§à¦à§à¦¤",
  "4734": " à¦¬à¦¿à¦à§à¦à¦¾à¦¨",
  "4735": "à¦°à¦¾à¦à¦¨à§à¦¤",
  "4736": " à¦­à§à¦®à¦¿à¦à¦¾ à¦ªà¦¾à¦²à¦¨ à¦à¦°",
  "4737": "¯à¦®",
  "4738": "à¦¬à¦¿à¦­à¦¾à¦",
  "4739": "à¦¾ à¦¬à¦¿à¦­à¦¿à¦¨à§à¦¨",
  "4740": "à§ à¦¦à§à¦à¦¾ à¦¯à¦¾à¦¯à¦¼",
  "4741": " à¦à¦¦à¦¾à¦²à¦¤",
  "4742": " à¦¬à¦¿à¦",
  "4743": "à¦¬à§",
  "4744": "à§à¦° à¦à¦¨à§à¦®",
  "4745": " à¦¬à¦¿à¦®à¦¾à¦¨",
  "4746": "à¦¾, à¦",
  "4747": "à¦ à¦¹à¦¿à¦¸à§à¦¬",
  "4748": "à¦¯à¦¾à¦¤à§à¦°",
  "4749": "à§à¦à¦",
  "4750": " à¦à¦¬à§à¦·à¦£",
  "4751": "à¦¾à¦° à¦«",
  "4752": "à¥¤ à¦à§à¦°",
  "4753": " à¦¸à¦®à¦¾à¦¨",
  "4754": "à§à¦§à§",
  "4755": " à¦¬à§à¦¹à§",
  "4756": " à¦¸à§à¦à§à¦¶à¦¨",
  "4757": "à§à¦¨à§à¦¦à§à¦°à§à¦¯à¦¼",
  "4758": "à¥¤ à¦®à¦§à§à¦¯à¦¯à§à¦",
  "4759": "à¦à¦¿ à¦¦",
  "4760": "à¦¨à§à¦§à¦¨",
  "4761": " à¦¬à¦¾ à¦",
  "4762": "à¦¿à¦à¦¸à§à¦¬",
  "4763": "à¦¬à¦¾à¦°à§à¦° à¦®à¦¤à§",
  "4764": " à¦¸à§à¦",
  "4765": "à¦¾à¦­ à¦à¦°à§à¥¤ à¦",
  "4766": "à¦à¦¿ à¦",
  "4767": "à¦¿à¦®à§à¦¬",
  "4768": "à¦¾à¦¸à§à¦°",
  "4769": "à§à¦° à¦¸à§à¦¤",
  "4770": ", à¦¸à§à¦",
  "4771": "à¦¿à¦²à¦¨",
  "4772": "à¦à¦¾à¦¨",
  "4773": "à§ à¦à¦¨à§à¦¤à¦°à§à¦­à§à¦à§à¦¤ à¦",
  "4774": "à¦à¦¯à¦¼à¦¾à¦¨",
  "4775": "à¦¾à¦° à¦¹à¦¯à¦¼",
  "4776": "à¦°à¦¾à¦®",
  "4777": " à¦à¦°à§à¥¤ à¦",
  "4778": " à¦®à¦¹à¦¿à¦²",
  "4779": "da",
  "4780": "vi",
  "4781": "ing ",
  "4782": "à¦¿à¦¤ à¦à¦",
  "4783": "à¦¾à¦° à¦¸à§à¦¬",
  "4784": " à¦¬à¦¾ à¦¸",
  "4785": "à¦§à§à¦¨",
  "4786": "à§à¦° à¦à¦¨à§à¦¤à¦°à§à¦à¦¾à¦¤à¦¿à¦",
  "4787": "à¦¾à¦° à¦¡",
  "4788": "à¦®à¦¹",
  "4789": "à¦¿à¦¯à¦¼à§à¦¶à¦¨",
  "4790": "à¦à§à¦¬à¦¨",
  "4791": "à§à¦° à§§",
  "4792": "à¦®à¦¨à§à¦¡",
  "4793": " (à¦",
  "4794": "à¦¿à¦¯à¦¼à§à¦",
  "4795": "à¦²à§à¦¨",
  "4796": "à§à¦¯à¦¾à¦¥à¦²à¦¿à¦",
  "4797": "à¦«à¦¿à¦",
  "4798": " à¦¬à¦¿à¦¶à§à¦¬à¦¾à¦¸",
  "4799": "à¦¿ à¦¦à§à¦¯à¦¼",
  "4800": "à¦¿à¦·à§à¦à¦¾à¦° à¦à¦°",
  "4801": "à¦¯à¦¼à¦¾à¦¨",
  "4802": " à¦ªà§à¦°à§",
  "4803": "à¦¾à¦à¦¿à¦",
  "4804": "à¦¿ à¦",
  "4805": "à§ à¦¶à§à¦·",
  "4806": " à¦¦à§à¦°",
  "4807": "à¦à¦®",
  "4808": "à¦à¦¤",
  "4809": "à§à¥¤ à¦¯",
  "4810": "à§à¦·à§à¦ à¦¾à¦¨à¦¿à¦à¦­à¦¾à¦¬",
  "4811": "à¦²à¦¿à¦¨",
  "4812": "à¦à¦",
  "4813": " à¦¨à¦",
  "4814": "à§ à¦®à¦¨",
  "4815": "à¦¾à¦à¦¸",
  "4816": "à¦¸à¦®à¦¾à¦¨",
  "4817": "à¦¾à¦° à¦à¦¤à§à¦¤à¦°",
  "4818": "à¥¤ à¦à¦¬",
  "4819": " à¦à¦®à¦¨",
  "4820": "à¦¹à¦¾à¦à¦¾à¦¶",
  "4821": "à§à¦¥",
  "4822": " à¦®à§à¦¡à¦¿à¦à§à¦²",
  "4823": " à¦à¦²à¦¿à¦®à§à¦ªà¦¿à¦",
  "4824": "à¦¾à¦¦à§à¦",
  "4825": "à¦à¦¨à¦¿à¦à§à¦¡",
  "4826": "à§à¦¤à¦¾à¦¯à¦¼à¦¨",
  "4827": "à§ à¦¸à¦à¦à§à¦à¦¾à¦¯à¦¼",
  "4828": "à¦à§à¦²à¦¿à¦",
  "4829": "orl",
  "4830": "à§ à¦à¦¨à§à¦¯",
  "4831": " à¦à¦à¦¨à¦",
  "4832": "à¦¿à¦¬à¦¦à§à¦§",
  "4833": "Â à¦®",
  "4834": "à¦¾ à¦¸à¦¾à¦§à¦¾à¦°à¦£à¦¤",
  "4835": " à¦ªà¦¦à¦¾à¦¬à¦²",
  "4836": " à§§à§¯à§¦",
  "4837": "à¦¤à¦¿à¦¹",
  "4838": "à¦¾à¦¹à¦¿à¦¤à§à¦¯à¦¿à¦",
  "4839": ")\n à¦¬",
  "4840": ")\n à¦¶",
  "4841": " à¦­à¦¬à¦¨",
  "4842": " à¦¸à¦¿à¦à¦¿ à¦à¦°à§à¦ªà§à¦°à§à¦¶à¦¨",
  "4843": "à¦¿ à¦à¦¯à¦¼",
  "4844": " à¦¸à§à¦¬",
  "4845": "à¦®à¦¿à¦¨",
  "4846": "à¦ªà§à¦°à¦¬à¦¾à¦¹",
  "4847": " à¦®à¦¡à§à¦²",
  "4848": "à§à¦à§à¦¶à¦¨",
  "4849": " à¦¸à§à¦·à§à¦à¦¿ à¦¹à¦¯à¦¼",
  "4850": " à¦®à§à¦à§à¦°à§à¦ªà¦²à¦¿à¦à¦¨",
  "4851": "à¦¿à¦°à¦à§à¦·à¦°à§à¦",
  "4852": "rom",
  "4853": "à¦°à¦à¦¯à¦¼",
  "4854": "­à§",
  "4855": "Î±",
  "4856": "à§ à¦à¦à¦°",
  "4857": "à§à¦°à§à¦",
  "4858": "à¦à§à¦à¦¾à¦¦",
  "4859": "à¦¾à¦¶à§à¦®",
  "4860": "à¦à¦à¦¤",
  "4861": " à¦à¦¦à§à¦­à¦¿à¦¦",
  "4862": "Histor",
  "4863": "à§à¦¯à¦¾à¦¸à¦²",
  "4864": "à¦¬à§à¦¤à§à¦¤",
  "4865": "à¦¿à¦à¦°à§à¦·",
  "4866": "à§à¦¸à§à¦«",
  "4867": " à¦ªà§à¦°à¦¾à¦¯à¦¼ ",
  "4868": " à¦¨à¦¾à¦¬à¦¿à¦",
  "4869": "yellow",
  "4870": "yellow;\"|",
  "4871": "yellow;\"|à¦¸",
  "4872": "yellow;\"|à¦¸à§à¦®à¦¿\n",
  "4873": "à¦¥à§à¦¯ à¦­à¦¾à¦·",
  "4874": "à¦¿ à¦à¦¾à¦¤à§à¦¯à¦¼",
  "4875": "à§à¦° à¦¸à¦à¦²",
  "4876": "à§ à¦à¦¨à§à¦¤à¦°à§à¦à¦¾à¦¤à¦¿à¦",
  "4877": " à¦à¦£à§à¦¡",
  "4878": "¯à§à¦",
  "4879": "à¦¶à¦¾à¦²à§",
  "4880": "\nà¦",
  "4881": "à¦¿à¦¦à§à¦¬à¦¨à§à¦¦",
  "4882": "à¥¤ à¦¸à¦",
  "4883": "¶à¦¬à§à¦¦",
  "4884": "à¦¿à¦¤ à¦°",
  "4885": "à¦ªà§à¦·",
  "4886": "à§ à¦¸à§à¦¬à§à¦à§à¦¤",
  "4887": " à¦à§à¦°à¦¿.",
  "4888": "à¦à¦®",
  "4889": ")à¥¤\n",
  "4890": "à¦¾à¦° à¦à¦¬",
  "4891": "à§à¦¯à¦¾à¦à§à¦",
  "4892": "à§à¦¤à¦¨",
  "4893": " à¦à¦¬à¦ ",
  "4894": "à§à¦¨à§à¦¦",
  "4895": "à¦¨à§à¦¤à§",
  "4896": "à¦¾à¦° à¦¦à¦¾à¦¬",
  "4897": "à¥¤\nà¦",
  "4898": "à§à¦° à¦®à¦§à§à¦¯à§ à¦¬",
  "4899": "ap",
  "4900": "\nà¦",
  "4901": "à§à¥¤ ",
  "4902": "à§à¦° à¦à¦à¦à¦¨",
  "4903": "à¦¿à¦¤ à¦",
  "4904": "à§ à¦à¦²à¦¾à¦¦",
  "4905": "à§à¦° à¦¶à§à¦°à§à¦¤",
  "4906": "à¦à¦¾à¦¯à¦¼ à¦°à¦¾à¦",
  "4907": "à¦¿à¦° à¦à¦ª",
  "4908": "-à¦à¦° à¦",
  "4909": " à¦¨à¦¾à¥¤ à¦",
  "4910": "à¥¤ à¦ªà§à¦°à§à¦¬",
  "4911": "à¦° à¦¨à¦¿à¦°à§à¦­à¦° à¦à¦°",
  "4912": " à¦ªà§à¦°à¦¤à¦¿à¦",
  "4913": "à¦¾ à¦¤à§à¦°",
  "4914": "à¦à¦¿à¦° à¦",
  "4915": "à¦¿à¦à¦à¦¬à¦°à§à¦¤à§",
  "4916": "à¦²à¦¬",
  "4917": " à¦¦à§à¦à¦¿ à¦",
  "4918": "à§ à¦¬à§à¦",
  "4919": " à¦¸à¦¹à¦",
  "4920": "à¥¤\"",
  "4921": "à¦¸à¦¿à¦à¦¹",
  "4922": "St",
  "4923": "es ",
  "4924": "à¦ªà¦¨",
  "4925": "à¦à§ à¦à§à¦¨à§à¦¦à§à¦° à¦à¦°",
  "4926": "à§ à¦à¦¸à¦²à¦¾à¦®",
  "4927": " à¦à¦®à¦²",
  "4928": "à¦à¦ ",
  "4929": "à¦·à¦®à§à¦¯",
  "4930": "à¦¿ à¦²à¦¾à¦­ à¦à¦°",
  "4931": " à¦ªà§à¦°à¦¤à¦¿ à¦¬",
  "4932": "à§à¦¤à§à¦°",
  "4933": " à¦¸à¦®à¦¸à§à¦¯",
  "4934": "à§à¦° à¦¸à§à¦·à§à¦à¦¿ à¦¹à¦¯à¦¼",
  "4935": ", à¦¬à¦¿à¦¶à§à¦¬",
  "4936": " à¦à¦«",
  "4937": "à§à¦² à¦à¦¸à¦²à¦¾à¦®",
  "4938": "à¦° à¦®à¦¾à¦§à§à¦¯à¦®",
  "4939": "à§ à¦¸à¦¾à¦§à¦¾à¦°à¦£",
  "4940": " à¦¥à§à¦à§ à¦à¦¸",
  "4941": " à¦¸à¦®à§à¦°à¦¾à¦",
  "4942": "à¦¤à¦¿",
  "4943": " à¦®à¦¹à¦¾à¦¸",
  "4944": "à§à¦¨à¦¤à¦¾à¦¤à§à¦¤à§à¦¬à¦¿à¦",
  "4945": "à¦¿à¦à§à¦°à¦®",
  "4946": " à¦ªà§à¦°à¦¤à¦¿à¦·à§à¦ à¦¾ à¦à¦°",
  "4947": " à¦¬à¦¸à¦¬à¦¾à¦¸",
  "4948": "à§à¦° à¦ªà§à¦°à¦¾à¦¥à¦®à¦¿à¦",
  "4949": ", à¦¯à¦à¦¨",
  "4950": " à¦¬à¦¾à¦£à¦¿à¦à§à¦¯à¦¿à¦",
  "4951": "à¦¸à¦¤à¦¿ à¦",
  "4952": "à§à¥¤ à¦ªà¦°",
  "4953": "à§à¦°à§à¦",
  "4954": "à¦à¦¶à§",
  "4955": "à§ à¦ªà¦°à¦¾à¦",
  "4956": "à¦¾à¦° à¦°à¦¾à¦à¦§à¦¾à¦¨à§",
  "4957": "à§ à¦à¦¯à¦¼à¦²",
  "4958": "à§à¦° à¦®à¦¨",
  "4959": "à¦¨à§à¦¦à§",
  "4960": "à§à¦° à¦®à§à¦",
  "4961": "à¦à¦¯à¦¼à§à¦¬ à¦à¦¾à¦¨",
  "4962": " à¦ªà§à¦°à¦",
  "4963": "à§ à¦à§à¦²",
  "4964": "à¦¾à¦²à¦¾à¦²",
  "4965": "ªà§à¦°à¦¾à¦¯à¦¼",
  "4966": "; à¦¯",
  "4967": "à¦° à¦°à¦¹à¦®à¦¾à¦¨",
  "4968": "à¦¾à¦²à§",
  "4969": " à§§à§¯à§¯à§¬",
  "4970": " à§¨à§¦à§§à§ª à¦¸à¦¾à¦²",
  "4971": " à¦¨à¦¾à¦¨",
  "4972": "à§¯à§«",
  "4973": ",à§«",
  "4974": "à¦¿à¦¯à§à¦à§à¦¤ à¦",
  "4975": "à¥¤ à¦à¦¨à§à¦¯à¦¾à¦¨à§à¦¯",
  "4976": "à¦¾ à§©",
  "4977": "à§à¦°à§à¦·à§à¦®à¦à¦¾à¦²",
  "4978": "à§ à¦à¦à¦¾à¦¨",
  "4979": "à¦®à¦¤à¦²",
  "4980": "à¦¾ à¦¥à§à¦à§ à¦¬",
  "4981": " à¦¬à§à¦¸à¦°à¦à¦¾à¦°",
  "4982": " à¦à¦°à§à¦®à¦à¦¾à¦£à§à¦¡",
  "4983": "\nà¦",
  "4984": "à¦¾à¥¤ à¦",
  "4985": ", à¦¯à¦¾à¦°",
  "4986": "à¦¦à¦¿à¦¬à¦¾à¦¸à§",
  "4987": " à¦¬à¦¾à¦¸",
  "4988": "à¦¿à¦¨à¦¿à¦®à¦¯à¦¼",
  "4989": "¬à¦¿à¦¶à§à¦¬",
  "4990": "à§ à¦ªà¦¾à¦ ",
  "4991": " à¦¸à¦°à¦¬à¦°à¦¾à¦¹",
  "4992": "à¦¨à¦",
  "4993": "à¦à¦ à¦¨",
  "4994": ", à¦à¦¶à¦¿à¦¯à¦¼",
  "4995": " à¦¸à¦¾à¦à¦¥",
  "4996": "à§à¦¤à§à¦¯à§à¦° à¦",
  "4997": "à¦¿à¦¶à§",
  "4998": "¶à¦¾à¦",
  "4999": "à¦à¦¿ à¦à¦¸à¦¨",
  "5000": "à§à¦¨à¦¨",
  "5001": "à¦¿à¦¦à§à¦§à¦¾à¦¨à§à¦¤ à¦¨",
  "5002": "¹à¦¨",
  "5003": "à§à¦° à¦¸à¦°à¦à¦¾à¦°",
  "5004": " à¦¨à§à¦¤",
  "5005": " à¦à¦°à§à¦®à¦à¦°à§à¦¤",
  "5006": "à¦¾à¦° à¦¸à¦",
  "5007": "à¦°à§à¦¤à§à¦",
  "5008": " à¦¨à¦¿à¦°à§à¦§à¦¾à¦°à¦£",
  "5009": " à¦à¦°à§à¦¥",
  "_note": "Base byte tokens 0–255 stored above; merged tokens 256+ constructed recursively from their parent pairs."
}